{
  "version": "1.0",
  "truncation": null,
  "padding": null,
  "added_tokens": [
    {
      "id": 0,
      "content": "<PAD>",
      "single_word": false,
      "lstrip": false,
      "rstrip": false,
      "normalized": false,
      "special": true
    },
    {
      "id": 1,
      "content": "<UNK>",
      "single_word": false,
      "lstrip": false,
      "rstrip": false,
      "normalized": false,
      "special": true
    },
    {
      "id": 2,
      "content": "<BOS>",
      "single_word": false,
      "lstrip": false,
      "rstrip": false,
      "normalized": false,
      "special": true
    },
    {
      "id": 3,
      "content": "<EOS>",
      "single_word": false,
      "lstrip": false,
      "rstrip": false,
      "normalized": false,
      "special": true
    },
    {
      "id": 4,
      "content": "<SEP>",
      "single_word": false,
      "lstrip": false,
      "rstrip": false,
      "normalized": false,
      "special": true
    },
    {
      "id": 155,
      "content": "PWM",
      "single_word": true,
      "lstrip": false,
      "rstrip": false,
      "normalized": true,
      "special": false
    },
    {
      "id": 162,
      "content": "500ms",
      "single_word": false,
      "lstrip": false,
      "rstrip": false,
      "normalized": true,
      "special": false
    },
    {
      "id": 163,
      "content": "200ms",
      "single_word": false,
      "lstrip": false,
      "rstrip": false,
      "normalized": true,
      "special": false
    },
    {
      "id": 170,
      "content": "100ms",
      "single_word": false,
      "lstrip": false,
      "rstrip": false,
      "normalized": true,
      "special": false
    },
    {
      "id": 181,
      "content": "2000ms",
      "single_word": false,
      "lstrip": false,
      "rstrip": false,
      "normalized": true,
      "special": false
    },
    {
      "id": 187,
      "content": "1000ms",
      "single_word": false,
      "lstrip": false,
      "rstrip": false,
      "normalized": true,
      "special": false
    },
    {
      "id": 195,
      "content": "output_push_pull",
      "single_word": false,
      "lstrip": false,
      "rstrip": false,
      "normalized": true,
      "special": false
    },
    {
      "id": 206,
      "content": "output_open_drain",
      "single_word": false,
      "lstrip": false,
      "rstrip": false,
      "normalized": true,
      "special": false
    },
    {
      "id": 209,
      "content": "2MHz",
      "single_word": false,
      "lstrip": false,
      "rstrip": false,
      "normalized": true,
      "special": false
    },
    {
      "id": 230,
      "content": "50MHz",
      "single_word": false,
      "lstrip": false,
      "rstrip": false,
      "normalized": true,
      "special": false
    },
    {
      "id": 234,
      "content": "10MHz",
      "single_word": false,
      "lstrip": false,
      "rstrip": false,
      "normalized": true,
      "special": false
    },
    {
      "id": 293,
      "content": "input_pull_up",
      "single_word": false,
      "lstrip": false,
      "rstrip": false,
      "normalized": true,
      "special": false
    },
    {
      "id": 298,
      "content": "input_floating",
      "single_word": false,
      "lstrip": false,
      "rstrip": false,
      "normalized": true,
      "special": false
    },
    {
      "id": 299,
      "content": "input_pull_down",
      "single_word": false,
      "lstrip": false,
      "rstrip": false,
      "normalized": true,
      "special": false
    },
    {
      "id": 442,
      "content": "CH1",
      "single_word": true,
      "lstrip": false,
      "rstrip": false,
      "normalized": true,
      "special": false
    },
    {
      "id": 445,
      "content": "CH2",
      "single_word": true,
      "lstrip": false,
      "rstrip": false,
      "normalized": true,
      "special": false
    },
    {
      "id": 453,
      "content": "CH4",
      "single_word": true,
      "lstrip": false,
      "rstrip": false,
      "normalized": true,
      "special": false
    },
    {
      "id": 457,
      "content": "CH3",
      "single_word": true,
      "lstrip": false,
      "rstrip": false,
      "normalized": true,
      "special": false
    },
    {
      "id": 666,
      "content": "PB",
      "single_word": true,
      "lstrip": false,
      "rstrip": false,
      "normalized": true,
      "special": false
    },
    {
      "id": 683,
      "content": "PA",
      "single_word": true,
      "lstrip": false,
      "rstrip": false,
      "normalized": true,
      "special": false
    },
    {
      "id": 1047,
      "content": "PC",
      "single_word": true,
      "lstrip": false,
      "rstrip": false,
      "normalized": true,
      "special": false
    },
    {
      "id": 1225,
      "content": "PD",
      "single_word": true,
      "lstrip": false,
      "rstrip": false,
      "normalized": true,
      "special": false
    },
    {
      "id": 1952,
      "content": "25%",
      "single_word": false,
      "lstrip": false,
      "rstrip": false,
      "normalized": true,
      "special": false
    },
    {
      "id": 1953,
      "content": "50%",
      "single_word": false,
      "lstrip": false,
      "rstrip": false,
      "normalized": true,
      "special": false
    },
    {
      "id": 1954,
      "content": "75%",
      "single_word": false,
      "lstrip": false,
      "rstrip": false,
      "normalized": true,
      "special": false
    },
    {
      "id": 1955,
      "content": "100%",
      "single_word": false,
      "lstrip": false,
      "rstrip": false,
      "normalized": true,
      "special": false
    },
    {
      "id": 1956,
      "content": "GPIO_OUTPUT",
      "single_word": false,
      "lstrip": false,
      "rstrip": false,
      "normalized": true,
      "special": false
    },
    {
      "id": 1957,
      "content": "GPIO_INPUT",
      "single_word": false,
      "lstrip": false,
      "rstrip": false,
      "normalized": true,
      "special": false
    },
    {
      "id": 1958,
      "content": "GPIO_TOGGLE",
      "single_word": false,
      "lstrip": false,
      "rstrip": false,
      "normalized": true,
      "special": false
    },
    {
      "id": 1959,
      "content": "GPIO_READ",
      "single_word": false,
      "lstrip": false,
      "rstrip": false,
      "normalized": true,
      "special": false
    },
    {
      "id": 1960,
      "content": "UART_INIT",
      "single_word": false,
      "lstrip": false,
      "rstrip": false,
      "normalized": true,
      "special": false
    },
    {
      "id": 1961,
      "content": "UART_TRANSMIT",
      "single_word": false,
      "lstrip": false,
      "rstrip": false,
      "normalized": true,
      "special": false
    },
    {
      "id": 1962,
      "content": "UART_RECEIVE",
      "single_word": false,
      "lstrip": false,
      "rstrip": false,
      "normalized": true,
      "special": false
    },
    {
      "id": 1963,
      "content": "TIMER_DELAY",
      "single_word": false,
      "lstrip": false,
      "rstrip": false,
      "normalized": true,
      "special": false
    },
    {
      "id": 1964,
      "content": "TIMER_PWM",
      "single_word": false,
      "lstrip": false,
      "rstrip": false,
      "normalized": true,
      "special": false
    },
    {
      "id": 1965,
      "content": "RCC_ENABLE",
      "single_word": false,
      "lstrip": false,
      "rstrip": false,
      "normalized": true,
      "special": false
    },
    {
      "id": 1966,
      "content": "RCC_APB2ENR",
      "single_word": false,
      "lstrip": false,
      "rstrip": false,
      "normalized": true,
      "special": false
    },
    {
      "id": 1967,
      "content": "RCC_APB1ENR",
      "single_word": false,
      "lstrip": false,
      "rstrip": false,
      "normalized": true,
      "special": false
    }
  ],
  "normalizer": null,
  "pre_tokenizer": {
    "type": "Sequence",
    "pretokenizers": [
      {
        "type": "Whitespace"
      },
      {
        "type": "Split",
        "pattern": {
          "String": "([A-Z]{2})(\\d{1,2})"
        },
        "behavior": "Isolated",
        "invert": false
      }
    ]
  },
  "post_processor": {
    "type": "TemplateProcessing",
    "single": [
      {
        "SpecialToken": {
          "id": "<BOS>",
          "type_id": 0
        }
      },
      {
        "Sequence": {
          "id": "A",
          "type_id": 0
        }
      },
      {
        "SpecialToken": {
          "id": "<EOS>",
          "type_id": 0
        }
      }
    ],
    "pair": [
      {
        "Sequence": {
          "id": "A",
          "type_id": 0
        }
      },
      {
        "Sequence": {
          "id": "B",
          "type_id": 1
        }
      }
    ],
    "special_tokens": {
      "<BOS>": {
        "id": "<BOS>",
        "ids": [
          2
        ],
        "tokens": [
          "<BOS>"
        ]
      },
      "<EOS>": {
        "id": "<EOS>",
        "ids": [
          3
        ],
        "tokens": [
          "<EOS>"
        ]
      }
    }
  },
  "decoder": null,
  "model": {
    "type": "BPE",
    "dropout": null,
    "unk_token": "<UNK>",
    "continuing_subword_prefix": null,
    "end_of_word_suffix": null,
    "fuse_unk": false,
    "byte_fallback": false,
    "ignore_merges": false,
    "vocab": {
      "<PAD>": 0,
      "<UNK>": 1,
      "<BOS>": 2,
      "<EOS>": 3,
      "<SEP>": 4,
      "%": 5,
      "-": 6,
      "/": 7,
      "0": 8,
      "1": 9,
      "2": 10,
      "3": 11,
      "4": 12,
      "5": 13,
      "6": 14,
      "7": 15,
      "8": 16,
      "9": 17,
      "A": 18,
      "B": 19,
      "C": 20,
      "D": 21,
      "E": 22,
      "F": 23,
      "G": 24,
      "H": 25,
      "I": 26,
      "J": 27,
      "K": 28,
      "L": 29,
      "M": 30,
      "N": 31,
      "O": 32,
      "P": 33,
      "Q": 34,
      "R": 35,
      "S": 36,
      "T": 37,
      "U": 38,
      "V": 39,
      "W": 40,
      "X": 41,
      "Y": 42,
      "Z": 43,
      "_": 44,
      "a": 45,
      "b": 46,
      "c": 47,
      "d": 48,
      "e": 49,
      "f": 50,
      "g": 51,
      "h": 52,
      "i": 53,
      "j": 54,
      "k": 55,
      "l": 56,
      "m": 57,
      "n": 58,
      "o": 59,
      "p": 60,
      "q": 61,
      "r": 62,
      "s": 63,
      "t": 64,
      "u": 65,
      "v": 66,
      "w": 67,
      "x": 68,
      "y": 69,
      "z": 70,
      "ut": 71,
      "00": 72,
      "in": 73,
      "at": 74,
      "put": 75,
      "it": 76,
      "AR": 77,
      "SAR": 78,
      "USAR": 79,
      "USART": 80,
      "on": 81,
      "ms": 82,
      "se": 83,
      "out": 84,
      "output": 85,
      "ll": 86,
      "200": 87,
      "as": 88,
      "re": 89,
      "ud": 90,
      "ba": 91,
      "baud": 92,
      "IM": 93,
      "TIM": 94,
      "to": 95,
      "le": 96,
      "or": 97,
      "input": 98,
      "pu": 99,
      "al": 100,
      "_pu": 101,
      "ig": 102,
      "er": 103,
      "en": 104,
      "set": 105,
      "an": 106,
      "con": 107,
      "ing": 108,
      "100": 109,
      "USART1": 110,
      "USART3": 111,
      "up": 112,
      "Hz": 113,
      "MHz": 114,
      "USART2": 115,
      "bl": 116,
      "ure": 117,
      "for": 118,
      "fig": 119,
      "config": 120,
      "configure": 121,
      "el": 122,
      "600": 123,
      "0ms": 124,
      "_pull": 125,
      "pin": 126,
      "iti": 127,
      "ad": 128,
      "bit": 129,
      "us": 130,
      "ate": 131,
      "wit": 132,
      "ink": 133,
      "blink": 134,
      "sh": 135,
      "_d": 136,
      "0MHz": 137,
      "ev": 138,
      "ery": 139,
      "th": 140,
      "with": 141,
      "TIM4": 142,
      "TIM3": 143,
      "ay": 144,
      "del": 145,
      "delay": 146,
      "every": 147,
      "setup": 148,
      "500": 149,
      "TIM2": 150,
      "lo": 151,
      "ke": 152,
      "15": 153,
      "PW": 154,
      "PWM": 155,
      "115": 156,
      "115200": 157,
      "op": 158,
      "all": 159,
      "ma": 160,
      "st": 161,
      "500ms": 162,
      "200ms": 163,
      "400": 164,
      "por": 165,
      "port": 166,
      "make": 167,
      "od": 168,
      "ri": 169,
      "100ms": 170,
      "open": 171,
      "38": 172,
      "38400": 173,
      "_push": 174,
      "19": 175,
      "19200": 176,
      "of": 177,
      "ally": 178,
      "ra": 179,
      "57": 180,
      "2000ms": 181,
      "57600": 182,
      "9600": 183,
      "and": 184,
      "_push_pull": 185,
      "output_": 186,
      "1000ms": 187,
      "ali": 188,
      "open_d": 189,
      "ze": 190,
      "initi": 191,
      "alize": 192,
      "initialize": 193,
      "ch": 194,
      "output_push_pull": 195,
      "rain": 196,
      "output_open_d": 197,
      "ck": 198,
      "gg": 199,
      "togg": 200,
      "toggle": 201,
      "als": 202,
      "ve": 203,
      "onally": 204,
      "diti": 205,
      "output_open_drain": 206,
      "ditionally": 207,
      "input_pull": 208,
      "2MHz": 209,
      "dat": 210,
      "data": 211,
      "additionally": 212,
      "then": 213,
      "using": 214,
      "pl": 215,
      "ill": 216,
      "ce": 217,
      "also": 218,
      "sen": 219,
      "top": 220,
      "stop": 221,
      "ro": 222,
      "ell": 223,
      "well": 224,
      "wh": 225,
      "led": 226,
      "wa": 227,
      "plus": 228,
      "use": 229,
      "50MHz": 230,
      "read": 231,
      "pa": 232,
      "whi": 233,
      "10MHz": 234,
      "ds": 235,
      "send": 236,
      "while": 237,
      "tr": 238,
      "wait": 239,
      "seri": 240,
      "bits": 241,
      "serial": 242,
      "dut": 243,
      "duty": 244,
      "sm": 245,
      "ee": 246,
      "ansm": 247,
      "transm": 248,
      "transmit": 249,
      "nel": 250,
      "cy": 251,
      "vi": 252,
      "via": 253,
      "chan": 254,
      "cyc": 255,
      "mill": 256,
      "ive": 257,
      "milli": 258,
      "conds": 259,
      "rece": 260,
      "receive": 261,
      "channel": 262,
      "cycle": 263,
      "blo": 264,
      "_up": 265,
      "millise": 266,
      "CH": 267,
      "block": 268,
      "milliseconds": 269,
      "et": 270,
      "25": 271,
      "rt": 272,
      "flo": 273,
      "wan": 274,
      "want": 275,
      "ow": 276,
      "ating": 277,
      "input_": 278,
      "init": 279,
      "mod": 280,
      "ti": 281,
      "bs": 282,
      "eed": 283,
      "bsud": 284,
      "fl": 285,
      "floating": 286,
      "own": 287,
      "_down": 288,
      "per": 289,
      "cre": 290,
      "create": 291,
      "75": 292,
      "input_pull_up": 293,
      "un": 294,
      "fro": 295,
      "from": 296,
      "50": 297,
      "input_floating": 298,
      "input_pull_down": 299,
      "mode": 300,
      "gp": 301,
      "by": 302,
      "gpi": 303,
      "tx": 304,
      "dri": 305,
      "ign": 306,
      "peri": 307,
      "ur": 308,
      "sta": 309,
      "pause": 310,
      "tim": 311,
      "n2": 312,
      "ena": 313,
      "gpio": 314,
      "sign": 315,
      "get": 316,
      "te": 317,
      "period": 318,
      "drive": 319,
      "ble": 320,
      "n1": 321,
      "timer": 322,
      "clo": 323,
      "clock": 324,
      "enable": 325,
      "ld": 326,
      "ec": 327,
      "rit": 328,
      "gen": 329,
      "erate": 330,
      "generate": 331,
      "dig": 332,
      "rate": 333,
      "os": 334,
      "byte": 335,
      "digit": 336,
      "gh": 337,
      "bu": 338,
      "co": 339,
      "ugh": 340,
      "osc": 341,
      "digital": 342,
      "ring": 343,
      "off": 344,
      "oscill": 345,
      "pr": 346,
      "val": 347,
      "tur": 348,
      "sp": 349,
      "b1": 350,
      "run": 351,
      "swit": 352,
      "switch": 353,
      "ic": 354,
      "state": 355,
      "rough": 356,
      "into": 357,
      "blocking": 358,
      "speed": 359,
      "odu": 360,
      "produ": 361,
      "through": 362,
      "turn": 363,
      "ip": 364,
      "ou": 365,
      "ash": 366,
      "low": 367,
      "produce": 368,
      "pp": 369,
      "flash": 370,
      "oscillate": 371,
      "writ": 372,
      "ould": 373,
      "write": 374,
      "a1": 375,
      "ion": 376,
      "flip": 377,
      "should": 378,
      "art": 379,
      "runn": 380,
      "bring": 381,
      "the": 382,
      "ect": 383,
      "uart": 384,
      "running": 385,
      "9n2": 386,
      "cc": 387,
      "pre": 388,
      "sa": 389,
      "need": 390,
      "rcc": 391,
      "com": 392,
      "a2": 393,
      "assign": 394,
      "a5": 395,
      "a6": 396,
      "8n2": 397,
      "8n1": 398,
      "a3": 399,
      "ent": 400,
      "wut": 401,
      "pare": 402,
      "b9": 403,
      "coming": 404,
      "a0": 405,
      "b7": 406,
      "ple": 407,
      "wuth": 408,
      "9n1": 409,
      "b8": 410,
      "pe": 411,
      "prepare": 412,
      "ge": 413,
      "b6": 414,
      "baudrate": 415,
      "b0": 416,
      "b5": 417,
      "ff": 418,
      "hig": 419,
      "high": 420,
      "a4": 421,
      "incoming": 422,
      "mple": 423,
      "ter": 424,
      "rx": 425,
      "mske": 426,
      "is": 427,
      "nee": 428,
      "buff": 429,
      "a7": 430,
      "inter": 431,
      "ist": 432,
      "du": 433,
      "ue": 434,
      "needs": 435,
      "signals": 436,
      "pprt": 437,
      "dsta": 438,
      "rn": 439,
      "sl": 440,
      "stall": 441,
      "CH1": 442,
      "po": 443,
      "interval": 444,
      "CH2": 445,
      "periodic": 446,
      "pro": 447,
      "repe": 448,
      "2000": 449,
      "start": 450,
      "me": 451,
      "pt": 452,
      "CH4": 453,
      "be": 454,
      "buffer": 455,
      "dl": 456,
      "CH3": 457,
      "dly": 458,
      "ws": 459,
      "periodically": 460,
      "load": 461,
      "pb": 462,
      "badu": 463,
      "bytes": 464,
      "det": 465,
      "no": 466,
      "buad": 467,
      "ex": 468,
      "so": 469,
      "mes": 470,
      "ution": 471,
      "sage": 472,
      "detect": 473,
      "exec": 474,
      "vel": 475,
      "wor": 476,
      "atedly": 477,
      "value": 478,
      "repeatedly": 479,
      "work": 480,
      "hal": 481,
      "bli": 482,
      "halt": 483,
      "sof": 484,
      "execution": 485,
      "blish": 486,
      "message": 487,
      "soft": 488,
      "ca": 489,
      "ment": 490,
      "1000": 491,
      "imple": 492,
      "log": 493,
      "rity": 494,
      "ware": 495,
      "esta": 496,
      "prog": 497,
      "establish": 498,
      "rv": 499,
      "level": 500,
      "pture": 501,
      "software": 502,
      "implement": 503,
      "oper": 504,
      "parity": 505,
      "capture": 506,
      "rvery": 507,
      "pc": 508,
      "thrn": 509,
      "sense": 510,
      "nt": 511,
      "ta": 512,
      "ation": 513,
      "logic": 514,
      "push": 515,
      "ram": 516,
      "che": 517,
      "program": 518,
      "dur": 519,
      "slso": 520,
      "dury": 521,
      "check": 522,
      "ung": 523,
      "operation": 524,
      "list": 525,
      "coll": 526,
      "old": 527,
      "string": 528,
      "poll": 529,
      "cent": 530,
      "feed": 531,
      "rri": 532,
      "reading": 533,
      "collect": 534,
      "wi": 535,
      "modr": 536,
      "wsit": 537,
      "rriv": 538,
      "ste": 539,
      "output_open_dr": 540,
      "listen": 541,
      "hold": 542,
      "percent": 543,
      "rriving": 544,
      "fr": 545,
      "pd": 546,
      "sin": 547,
      "ae": 548,
      "ed": 549,
      "ov": 550,
      "rll": 551,
      "wrll": 552,
      "ac": 553,
      "stpp": 554,
      "output_open_drsin": 555,
      "lr": 556,
      "evr": 557,
      "arriving": 558,
      "gpiob": 559,
      "evry": 560,
      "if": 561,
      "800": 562,
      "but": 563,
      "ng": 564,
      "sd": 565,
      "over": 566,
      "buts": 567,
      "82": 568,
      "gist": 569,
      "nnel": 570,
      "ol": 571,
      "put_pull": 572,
      "gpioc": 573,
      "ey": 574,
      "kae": 575,
      "mkae": 576,
      "evey": 577,
      "unput_pull": 578,
      "gpiod": 579,
      "gpioa": 580,
      "sample": 581,
      "14": 582,
      "pm": 583,
      "ps": 584,
      "wsnt": 585,
      "gister": 586,
      "da": 587,
      "wih": 588,
      "0x": 589,
      "cur": 590,
      "dta": 591,
      "mon": 592,
      "ss": 593,
      "put_push_pull": 594,
      "register": 595,
      "bling": 596,
      "frpm": 597,
      "dtaa": 598,
      "mo": 599,
      "rr": 600,
      "vate": 601,
      "itor": 602,
      "usung": 603,
      "driv": 604,
      "monitor": 605,
      "ek": 606,
      "output_push": 607,
      "red": 608,
      "maek": 609,
      "potr": 610,
      "wti": 611,
      "enabling": 612,
      "92": 613,
      "snnel": 614,
      "putput_push_pull": 615,
      "open_drain": 616,
      "chsnnel": 617,
      "_open_drain": 618,
      "di": 619,
      "gpu": 620,
      "il": 621,
      "_drain": 622,
      "input_flo": 623,
      "tivate": 624,
      "daat": 625,
      "wiht": 626,
      "curre": 627,
      "wtih": 628,
      "gpuo": 629,
      "ne": 630,
      "prot": 631,
      "current": 632,
      "eevry": 633,
      "vol": 634,
      "sdditionally": 635,
      "psuse": 636,
      "10": 637,
      "wat": 638,
      "turm": 639,
      "tage": 640,
      "activate": 641,
      "1200": 642,
      "28": 643,
      "tu": 644,
      "what": 645,
      "unto": 646,
      "20": 647,
      "81": 648,
      "apb": 649,
      "hugh": 650,
      "ting": 651,
      "unput_pull_up": 652,
      "voltage": 653,
      "91": 654,
      "ph": 655,
      "uis": 656,
      "rey": 657,
      "evrey": 658,
      "thne": 659,
      "whilr": 660,
      "periph": 661,
      "driven": 662,
      "uisng": 663,
      "13": 664,
      "4800": 665,
      "PB": 666,
      "dtu": 667,
      "alos": 668,
      "form": 669,
      "additi": 670,
      "usrt": 671,
      "sting": 672,
      "stpo": 673,
      "stste": 674,
      "millis": 675,
      "flup": 676,
      "eveyr": 677,
      "unput_pull_down": 678,
      "moed": 679,
      "28800": 680,
      "dtuy": 681,
      "2500": 682,
      "PA": 683,
      "_floating": 684,
      "eery": 685,
      "hg": 686,
      "ible": 687,
      "ls": 688,
      "nred": 689,
      "add": 690,
      "thr": 691,
      "cess": 692,
      "cyclr": 693,
      "blok": 694,
      "oscillste": 695,
      "access": 696,
      "input_flosting": 697,
      "peripher": 698,
      "250000": 699,
      "accessible": 700,
      "_p": 701,
      "nig": 702,
      "rconds": 703,
      "ssh": 704,
      "outpt": 705,
      "_pul": 706,
      "setting": 707,
      "_upll": 708,
      "flssh": 709,
      "digitsl": 710,
      "turned": 711,
      "14400": 712,
      "wati": 713,
      "millisrconds": 714,
      "hn": 715,
      "su": 716,
      "ull": 717,
      "va": 718,
      "yt": 719,
      "inpu": 720,
      "aslo": 721,
      "pull": 722,
      "puld": 723,
      "_pull_up": 724,
      "shpuld": 725,
      "plsu": 726,
      "cyle": 727,
      "blockung": 728,
      "tehn": 729,
      "sot": 730,
      "wiat": 731,
      "frmo": 732,
      "0x400": 733,
      "addition": 734,
      "12": 735,
      "2400": 736,
      "br": 737,
      "ie": 738,
      "ot": 739,
      "sll": 740,
      "wn": 741,
      "inut": 742,
      "seconds": 743,
      "pugh": 744,
      "en_drain": 745,
      "usign": 746,
      "allow": 747,
      "output_op": 748,
      "bytr": 749,
      "duyt": 750,
      "thrpugh": 751,
      "blokc": 752,
      "peripheral": 753,
      "11": 754,
      "pck": 755,
      "rve": 756,
      "rste": 757,
      "uing": 758,
      "inpt": 759,
      "puls": 760,
      "aly": 761,
      "blpck": 762,
      "usnig": 763,
      "losd": 764,
      "whiel": 765,
      "chann": 766,
      "millisec": 767,
      "uncoming": 768,
      "ungate": 769,
      "lrvel": 770,
      "ilate": 771,
      "brig": 772,
      "wnat": 773,
      "inptu": 774,
      "_ull": 775,
      "im": 776,
      "oe": 777,
      "pn": 778,
      "wle": 779,
      "upt": 780,
      "stte": 781,
      "input_pull_d": 782,
      "timrr": 783,
      "buffrr": 784,
      "sssign": 785,
      "dirve": 786,
      "sotp": 787,
      "additionaly": 788,
      "wlel": 789,
      "18": 790,
      "_t": 791,
      "ase": 792,
      "bti": 793,
      "bist": 794,
      "bol": 795,
      "gate": 796,
      "hsl": 797,
      "ionally": 798,
      "la": 799,
      "lit": 800,
      "lie": 801,
      "mer": 802,
      "tmer": 803,
      "ul": 804,
      "ital": 805,
      "puase": 806,
      "_pull_down": 807,
      "itionally": 808,
      "aditionally": 809,
      "usng": 810,
      "sh_pull": 811,
      "output_p": 812,
      "output_open": 813,
      "plul": 814,
      "whlie": 815,
      "paue": 816,
      "whie": 817,
      "signsl": 818,
      "oscilate": 819,
      "rung": 820,
      "repeat": 821,
      "ovrr": 822,
      "output_push_upll": 823,
      "addit": 824,
      "channle": 825,
      "btis": 826,
      "bolck": 827,
      "hslt": 828,
      "brung": 829,
      "fred": 830,
      "hi": 831,
      "iseconds": 832,
      "king": 833,
      "sg": 834,
      "sor": 835,
      "trough": 836,
      "ut_open_drain": 837,
      "inot": 838,
      "output_pu": 839,
      "input_pul": 840,
      "blco": 841,
      "addi": 842,
      "usig": 843,
      "whle": 844,
      "fla": 845,
      "b12": 846,
      "ppll": 847,
      "pei": 848,
      "progr": 849,
      "ede": 850,
      "wihle": 851,
      "drivr": 852,
      "output_push_pul": 853,
      "watn": 854,
      "addti": 855,
      "vale": 856,
      "hihg": 857,
      "16": 858,
      "17": 859,
      "brn": 860,
      "b20": 861,
      "cr": 862,
      "ct": 863,
      "d_": 864,
      "dive": 865,
      "doe": 866,
      "est": 867,
      "fo": 868,
      "hlo": 869,
      "id": 870,
      "ih": 871,
      "lve": 872,
      "mr": 873,
      "mil": 874,
      "mdoe": 875,
      "nan": 876,
      "ough": 877,
      "p_ull": 878,
      "rod": 879,
      "sat": 880,
      "sit": 881,
      "sate": 882,
      "swut": 883,
      "srn": 884,
      "srriving": 885,
      "tun": 886,
      "uc": 887,
      "vsl": 888,
      "wpr": 889,
      "put_open_drain": 890,
      "outut_open_drain": 891,
      "input_upll": 892,
      "enl": 893,
      "upsh_pull": 894,
      "shu": 895,
      "loating": 896,
      "ods": 897,
      "output_upsh_pull": 898,
      "chnnel": 899,
      "chnan": 900,
      "output_open_da": 901,
      "chanel": 902,
      "chanenl": 903,
      "cycel": 904,
      "byt": 905,
      "byet": 906,
      "perid": 907,
      "time": 908,
      "timr": 909,
      "buf": 910,
      "oscillte": 911,
      "oscillae": 912,
      "spred": 913,
      "producr": 914,
      "a12": 915,
      "some": 916,
      "messs": 917,
      "loguc": 918,
      "tae": 919,
      "wile": 920,
      "hgih": 921,
      "outpt_open_drain": 922,
      "inpu_t": 923,
      "inut_floating": 924,
      "output_ope": 925,
      "impl": 926,
      "output_pen_drain": 927,
      "output_open_": 928,
      "peirod": 929,
      "hlod": 930,
      "lveel": 931,
      "satte": 932,
      "swutch": 933,
      "tunr": 934,
      "wprk": 935,
      "chnanel": 936,
      "messsge": 937,
      "04": 938,
      "2en": 939,
      "_h": 940,
      "aet": 941,
      "b2": 942,
      "bo": 943,
      "bt": 944,
      "cm": 945,
      "can": 946,
      "ccyle": 947,
      "d0": 948,
      "emr": 949,
      "hl": 950,
      "hs": 951,
      "h_pull": 952,
      "hpl": 953,
      "hnnel": 954,
      "iop": 955,
      "nut": 956,
      "oally": 957,
      "pas": 958,
      "rck": 959,
      "sould": 960,
      "sblish": 961,
      "s_h": 962,
      "ture": 963,
      "ule": 964,
      "u_p": 965,
      "vl": 966,
      "won": 967,
      "ye": 968,
      "inally": 969,
      "incom": 970,
      "itno": 971,
      "outpu": 972,
      "lly": 973,
      "assg": 974,
      "puse": 975,
      "blck": 976,
      "thro": 977,
      "riod": 978,
      "chck": 979,
      "chce": 980,
      "chrck": 981,
      "input_pull_pu": 982,
      "input_pullu_p": 983,
      "sensor": 984,
      "pase": 985,
      "trun": 986,
      "smple": 987,
      "millie": 988,
      "input_plul": 989,
      "tiemr": 990,
      "bsudrate": 991,
      "flsa": 992,
      "perod": 993,
      "urat": 994,
      "gpio_": 995,
      "digi": 996,
      "b17": 997,
      "runing": 998,
      "ipnut": 999,
      "a10": 1000,
      "ccle": 1001,
      "preps": 1002,
      "periodicsll": 1003,
      "wsre": 1004,
      "softwsre": 1005,
      "cahnnel": 1006,
      "implem": 1007,
      "operat": 1008,
      "listrn": 1009,
      "output_open_dran": 1010,
      "psrity": 1011,
      "currn": 1012,
      "drivrn": 1013,
      "diital": 1014,
      "ne_drain": 1015,
      "outpt_push_pull": 1016,
      "vaule": 1017,
      "output_opne_drain": 1018,
      "millisecn": 1019,
      "inptu_floating": 1020,
      "inptu_pull_up": 1021,
      "input_pull_dwon": 1022,
      "liten": 1023,
      "signsls": 1024,
      "output_pus_h": 1025,
      "input_pul_up": 1026,
      "blcok": 1027,
      "addtiionally": 1028,
      "estsblish": 1029,
      "foating": 1030,
      "shuold": 1031,
      "output_open_dain": 1032,
      "bock": 1033,
      "btye": 1034,
      "cming": 1035,
      "cannel": 1036,
      "hlat": 1037,
      "hpld": 1038,
      "pasue": 1039,
      "chcek": 1040,
      "input_plul_up": 1041,
      "flsah": 1042,
      "prepsre": 1043,
      "periodicslly": 1044,
      "output_pus_hpull": 1045,
      "08": 1046,
      "PC": 1047,
      "_plul": 1048,
      "ap": 1049,
      "ait": 1050,
      "bing": 1051,
      "ci": 1052,
      "csp": 1053,
      "cution": 1054,
      "ctivate": 1055,
      "dg": 1056,
      "dr": 1057,
      "dy": 1058,
      "drt": 1059,
      "esage": 1060,
      "efr": 1061,
      "fas": 1062,
      "fash": 1063,
      "fol": 1064,
      "fil": 1065,
      "gn": 1066,
      "gste": 1067,
      "hu": 1068,
      "hough": 1069,
      "iod": 1070,
      "lg": 1071,
      "lvel": 1072,
      "mll": 1073,
      "nd": 1074,
      "nre": 1075,
      "nede": 1076,
      "oc": 1077,
      "otu": 1078,
      "o_p": 1079,
      "oupt": 1080,
      "pll": 1081,
      "rment": 1082,
      "rcent": 1083,
      "rda": 1084,
      "sw": 1085,
      "srt": 1086,
      "sbling": 1087,
      "sie": 1088,
      "ssmple": 1089,
      "sctivate": 1090,
      "tch": 1091,
      "uo": 1092,
      "uat": 1093,
      "u_open_drain": 1094,
      "vali": 1095,
      "ut_push_pull": 1096,
      "ino": 1097,
      "inco": 1098,
      "incming": 1099,
      "itonally": 1100,
      "onds": 1101,
      "msesage": 1102,
      "sepe": 1103,
      "outupt": 1104,
      "outputo_p": 1105,
      "baudart": 1106,
      "leev": 1107,
      "inputp_ull": 1108,
      "igc": 1109,
      "ensbling": 1110,
      "usart": 1111,
      "loigc": 1112,
      "ope": 1113,
      "oprn": 1114,
      "stion": 1115,
      "stsll": 1116,
      "sttae": 1117,
      "output_oe": 1118,
      "input_pull_p": 1119,
      "illate": 1120,
      "trhough": 1121,
      "vie": 1122,
      "millsie": 1123,
      "input_ull": 1124,
      "input_loating": 1125,
      "input_fol": 1126,
      "input_pll": 1127,
      "unic": 1128,
      "stae": 1129,
      "staet": 1130,
      "tim3": 1131,
      "timre": 1132,
      "signas": 1133,
      "signal": 1134,
      "oscillaet": 1135,
      "prrcent": 1136,
      "sped": 1137,
      "b10": 1138,
      "b16": 1139,
      "b18": 1140,
      "a11": 1141,
      "a16": 1142,
      "a18": 1143,
      "runnung": 1144,
      "uart_": 1145,
      "preiod": 1146,
      "sapm": 1147,
      "rcc_": 1148,
      "a20": 1149,
      "pepare": 1150,
      "repeste": 1151,
      "mesage": 1152,
      "sohu": 1153,
      "operstion": 1154,
      "taing": 1155,
      "push_pull": 1156,
      "chek": 1157,
      "acti": 1158,
      "output_push_ull": 1159,
      "output_push_plul": 1160,
      "input_float": 1161,
      "input_flotaing": 1162,
      "volt": 1163,
      "additioally": 1164,
      "periphersl": 1165,
      "outptu_open_drain": 1166,
      "inpu_pull_up": 1167,
      "0x40000": 1168,
      "0x40010": 1169,
      "sllow": 1170,
      "inut_pull_down": 1171,
      "millisecods": 1172,
      "imng": 1173,
      "pn_drain": 1174,
      "input_pull_don": 1175,
      "laod": 1176,
      "litsen": 1177,
      "paues": 1178,
      "repeatel": 1179,
      "repeatdly": 1180,
      "addiionally": 1181,
      "addiitonally": 1182,
      "flahs": 1183,
      "progrma": 1184,
      "valeu": 1185,
      "brng": 1186,
      "miliseconds": 1187,
      "sitch": 1188,
      "srnse": 1189,
      "vslue": 1190,
      "input_upll_up": 1191,
      "bytse": 1192,
      "bufefr": 1193,
      "inpu_tfloating": 1194,
      "output_ope_drain": 1195,
      "implrment": 1196,
      "output_open_rda": 1197,
      "assgin": 1198,
      "millieconds": 1199,
      "currnet": 1200,
      "apb1": 1201,
      "cspture": 1202,
      "drvie": 1203,
      "drtect": 1204,
      "fast": 1205,
      "filp": 1206,
      "mlliseconds": 1207,
      "nreds": 1208,
      "uatr": 1209,
      "incoimng": 1210,
      "seped": 1211,
      "outputo_pen_drain": 1212,
      "baudarte": 1213,
      "leevl": 1214,
      "inputp_ull_up": 1215,
      "output_oepn_drain": 1216,
      "millsieconds": 1217,
      "input_folating": 1218,
      "unication": 1219,
      "sapmle": 1220,
      "repestedly": 1221,
      "sohuld": 1222,
      "output_open_rdain": 1223,
      "2800": 1224,
      "PD": 1225,
      "_own": 1226,
      "_loating": 1227,
      "_nd": 1228,
      "a8": 1229,
      "a9": 1230,
      "am": 1231,
      "arriv": 1232,
      "bf": 1233,
      "bud": 1234,
      "bff": 1235,
      "bil": 1236,
      "cat": 1237,
      "cing": 1238,
      "c15": 1239,
      "c13": 1240,
      "dee": 1241,
      "dte": 1242,
      "ea": 1243,
      "fs": 1244,
      "fer": 1245,
      "fware": 1246,
      "fede": 1247,
      "f_loating": 1248,
      "gu": 1249,
      "gsit": 1250,
      "hod": 1251,
      "kr": 1252,
      "las": 1253,
      "lal": 1254,
      "lce": 1255,
      "lpe": 1256,
      "lilate": 1257,
      "lfoating": 1258,
      "munication": 1259,
      "mlpe": 1260,
      "ns": 1261,
      "nate": 1262,
      "oi": 1263,
      "oud": 1264,
      "oic": 1265,
      "oting": 1266,
      "oid": 1267,
      "oinally": 1268,
      "okr": 1269,
      "pi": 1270,
      "priod": 1271,
      "sig": 1272,
      "swith": 1273,
      "sall": 1274,
      "sma": 1275,
      "swti": 1276,
      "sillate": 1277,
      "uhg": 1278,
      "uh_pull": 1279,
      "ufer": 1280,
      "vte": 1281,
      "wro": 1282,
      "wokr": 1283,
      "xcution": 1284,
      "int": 1285,
      "iner": 1286,
      "inupt": 1287,
      "atl": 1288,
      "iten": 1289,
      "itvate": 1290,
      "llate": 1291,
      "asign": 1292,
      "asis": 1293,
      "rea": 1294,
      "resd": 1295,
      "regist": 1296,
      "reda": 1297,
      "regsit": 1298,
      "udce": 1299,
      "baudra": 1300,
      "baudrt": 1301,
      "leel": 1302,
      "orugh": 1303,
      "inputpull": 1304,
      "inputf_loating": 1305,
      "alter": 1306,
      "enr": 1307,
      "anls": 1308,
      "blun": 1309,
      "adid": 1310,
      "blinking": 1311,
      "shoud": 1312,
      "thing": 1313,
      "though": 1314,
      "thorugh": 1315,
      "str": 1316,
      "stll": 1317,
      "strn": 1318,
      "stlal": 1319,
      "odns": 1320,
      "output_ps": 1321,
      "input_pull_own": 1322,
      "ceonds": 1323,
      "part": 1324,
      "eexcution": 1325,
      "cyce": 1326,
      "cylce": 1327,
      "millseconds": 1328,
      "blocing": 1329,
      "input_fla": 1330,
      "input_foating": 1331,
      "input_lfoating": 1332,
      "tion": 1333,
      "tier": 1334,
      "tionally": 1335,
      "flpi": 1336,
      "gpoi": 1337,
      "drie": 1338,
      "signlas": 1339,
      "ecution": 1340,
      "digitla": 1341,
      "osclilate": 1342,
      "prpare": 1343,
      "prdu": 1344,
      "prriod": 1345,
      "b11": 1346,
      "b13": 1347,
      "ically": 1348,
      "ouput_open_drain": 1349,
      "runnig": 1350,
      "runnign": 1351,
      "prepa": 1352,
      "prepre": 1353,
      "sablish": 1354,
      "samlpe": 1355,
      "communication": 1356,
      "rxecution": 1357,
      "neesd": 1358,
      "buffre": 1359,
      "intervsl": 1360,
      "intervl": 1361,
      "ister": 1362,
      "proudce": 1363,
      "detet": 1364,
      "execut": 1365,
      "exection": 1366,
      "softw": 1367,
      "logc": 1368,
      "collet": 1369,
      "acitvate": 1370,
      "1404": 1371,
      "0x2": 1372,
      "0x3": 1373,
      "rrgister": 1374,
      "output_pushpull": 1375,
      "output_pushp_ull": 1376,
      "ilseconds": 1377,
      "input_floait": 1378,
      "apb2en": 1379,
      "millisceonds": 1380,
      "lsiten": 1381,
      "thruo": 1382,
      "inpu_floating": 1383,
      "sotfware": 1384,
      "0x4001": 1385,
      "additionlly": 1386,
      "otput_push_pull": 1387,
      "inut_pull_up": 1388,
      "bytrs": 1389,
      "blokcing": 1390,
      "channl": 1391,
      "millisecodns": 1392,
      "additionalyl": 1393,
      "_tpush_pull": 1394,
      "output_psh_pull": 1395,
      "output_opend_": 1396,
      "additonally": 1397,
      "additinally": 1398,
      "additoinally": 1399,
      "blcoking": 1400,
      "progrsm": 1401,
      "addtionally": 1402,
      "brnig": 1403,
      "mililseconds": 1404,
      "srnsor": 1405,
      "input_upll_down": 1406,
      "byts": 1407,
      "byets": 1408,
      "perido": 1409,
      "bufer": 1410,
      "inpu_tpull": 1411,
      "output_ope_nd": 1412,
      "implment": 1413,
      "output_open_rain": 1414,
      "incomign": 1415,
      "incomng": 1416,
      "outpu_tpush_pull": 1417,
      "throgu": 1418,
      "throuhg": 1419,
      "truned": 1420,
      "digial": 1421,
      "digiatl": 1422,
      "ipnut_pull_up": 1423,
      "implemnt": 1424,
      "operatino": 1425,
      "millisecnds": 1426,
      "millisecnods": 1427,
      "080": 1428,
      "dgital": 1429,
      "lgoic": 1430,
      "ocsillate": 1431,
      "otuput_open_drain": 1432,
      "ouptut_push_pull": 1433,
      "swtch": 1434,
      "srtting": 1435,
      "valid_": 1436,
      "outupt_push_pull": 1437,
      "opeation": 1438,
      "input_ull_down": 1439,
      "input_pll_down": 1440,
      "tim3ms": 1441,
      "input_floatnig": 1442,
      "repeateldy": 1443,
      "apb1enr": 1444,
      "arrivign": 1445,
      "bfufer": 1446,
      "budrate": 1447,
      "bffer": 1448,
      "dtect": 1449,
      "fsst": 1450,
      "hodl": 1451,
      "siganls": 1452,
      "swithc": 1453,
      "smaple": 1454,
      "swtich": 1455,
      "wrok": 1456,
      "inerval": 1457,
      "asisgn": 1458,
      "resding": 1459,
      "registr": 1460,
      "redaing": 1461,
      "regsiter": 1462,
      "baudraet": 1463,
      "alternate": 1464,
      "blunking": 1465,
      "adidtionally": 1466,
      "shoudl": 1467,
      "strnig": 1468,
      "output_psuh_pull": 1469,
      "parti": 1470,
      "input_flaoting": 1471,
      "prduce": 1472,
      "14040": 1473,
      "input_floaitng": 1474,
      "apb2enr": 1475,
      "thruogh": 1476,
      "output_opend_rain": 1477,
      "output_ope_ndrain": 1478,
      "throguh": 1479,
      "0c": 1480,
      "0400": 1481,
      "1c": 1482,
      "1en": 1483,
      "1400": 1484,
      "21000": 1485,
      "3en": 1486,
      "4en": 1487,
      "4080": 1488,
      "80": 1489,
      "_top": 1490,
      "_ld": 1491,
      "af": 1492,
      "aen": 1493,
      "a15": 1494,
      "apre": 1495,
      "arri": 1496,
      "avte": 1497,
      "b3": 1498,
      "b4": 1499,
      "big": 1500,
      "ben": 1501,
      "b15": 1502,
      "c00": 1503,
      "cen": 1504,
      "cally": 1505,
      "cue": 1506,
      "cpture": 1507,
      "cnt": 1508,
      "c14": 1509,
      "d1": 1510,
      "den": 1511,
      "drate": 1512,
      "dou": 1513,
      "drve": 1514,
      "es": 1515,
      "eatedly": 1516,
      "esablish": 1517,
      "fre": 1518,
      "fal": 1519,
      "gip": 1520,
      "gae": 1521,
      "ht": 1522,
      "her": 1523,
      "iw": 1524,
      "iset": 1525,
      "icoming": 1526,
      "irn": 1527,
      "iac": 1528,
      "iput_pull": 1529,
      "iital": 1530,
      "iking": 1531,
      "lst": 1532,
      "laly": 1533,
      "liset": 1534,
      "met": 1535,
      "non": 1536,
      "ning": 1537,
      "nds": 1538,
      "net": 1539,
      "ned": 1540,
      "n_drain": 1541,
      "nking": 1542,
      "niking": 1543,
      "oin": 1544,
      "oen_drain": 1545,
      "ptr": 1546,
      "podu": 1547,
      "prity": 1548,
      "qu": 1549,
      "rl": 1550,
      "rin": 1551,
      "ror": 1552,
      "ral": 1553,
      "rge": 1554,
      "rrn": 1555,
      "rgister": 1556,
      "rct": 1557,
      "sing": 1558,
      "sro": 1559,
      "sconds": 1560,
      "sge": 1561,
      "sca": 1562,
      "siw": 1563,
      "tal": 1564,
      "tvate": 1565,
      "tct": 1566,
      "uit": 1567,
      "ugn": 1568,
      "vlo": 1569,
      "vot": 1570,
      "vla": 1571,
      "vtae": 1572,
      "wm": 1573,
      "wta": 1574,
      "utor": 1575,
      "000": 1576,
      "inal": 1577,
      "intr": 1578,
      "inoally": 1579,
      "invali": 1580,
      "atci": 1581,
      "ity": 1582,
      "ono": 1583,
      "sese": 1584,
      "seed": 1585,
      "outut_push_pull": 1586,
      "outputopen_drain": 1587,
      "outputpush_pull": 1588,
      "assin": 1589,
      "assing": 1590,
      "reig": 1591,
      "reister": 1592,
      "recnt": 1593,
      "reeatedly": 1594,
      "baur": 1595,
      "badrate": 1596,
      "TIM1": 1597,
      "ler": 1598,
      "levl": 1599,
      "inputfloating": 1600,
      "pure": 1601,
      "aling": 1602,
      "alow": 1603,
      "alol": 1604,
      "igtal": 1605,
      "error": 1606,
      "ency": 1607,
      "enaling": 1608,
      "cons": 1609,
      "blnig": 1610,
      "blniking": 1611,
      "elay": 1612,
      "ush_pull": 1613,
      "atedy": 1614,
      "blinkig": 1615,
      "shold": 1616,
      "shol": 1617,
      "_delay": 1618,
      "eval": 1619,
      "even": 1620,
      "dely": 1621,
      "5000": 1622,
      "loda": 1623,
      "stal": 1624,
      "ster": 1625,
      "strung": 1626,
      "stirn": 1627,
      "odd": 1628,
      "odcue": 1629,
      "riyt": 1630,
      "3800": 1631,
      "rae": 1632,
      "output_oen_drain": 1633,
      "output_ush_pull": 1634,
      "veform": 1635,
      "input_pullup": 1636,
      "input_pulld_": 1637,
      "cet": 1638,
      "ceck": 1639,
      "senos": 1640,
      "senes": 1641,
      "sensro": 1642,
      "when": 1643,
      "wae": 1644,
      "waht": 1645,
      "waveform": 1646,
      "paity": 1647,
      "pariyt": 1648,
      "trned": 1649,
      "milliseoc": 1650,
      "milliseonds": 1651,
      "millisecons": 1652,
      "blockign": 1653,
      "etsablish": 1654,
      "tial": 1655,
      "peroid": 1656,
      "crent": 1657,
      "unate": 1658,
      "driev": 1659,
      "perioid": 1660,
      "tim2en": 1661,
      "tim4en": 1662,
      "enabil": 1663,
      "enablnig": 1664,
      "periodci": 1665,
      "periodiac": 1666,
      "timer_p": 1667,
      "timer_delay": 1668,
      "digtial": 1669,
      "osic": 1670,
      "osillate": 1671,
      "digitl": 1672,
      "oscllate": 1673,
      "oscilltae": 1674,
      "prdou": 1675,
      "prodcue": 1676,
      "spede": 1677,
      "b14": 1678,
      "icth": 1679,
      "produe": 1680,
      "ipher": 1681,
      "ouput_push_pull": 1682,
      "a13": 1683,
      "a14": 1684,
      "a17": 1685,
      "artion": 1686,
      "runnng": 1687,
      "uart1": 1688,
      "uart2": 1689,
      "uart3": 1690,
      "preapre": 1691,
      "presca": 1692,
      "sae": 1693,
      "sable": 1694,
      "saple": 1695,
      "comple": 1696,
      "comunication": 1697,
      "perecnt": 1698,
      "pecrent": 1699,
      "peipher": 1700,
      "nees": 1701,
      "buffr": 1702,
      "intervla": 1703,
      "rnning": 1704,
      "periodiclly": 1705,
      "repeae": 1706,
      "repeaet": 1707,
      "repeatedy": 1708,
      "ptue": 1709,
      "befo": 1710,
      "detcet": 1711,
      "buadrate": 1712,
      "excution": 1713,
      "somr": 1714,
      "somet": 1715,
      "messg": 1716,
      "messae": 1717,
      "execuit": 1718,
      "word": 1719,
      "blih": 1720,
      "sofwta": 1721,
      "softwae": 1722,
      "captr": 1723,
      "captue": 1724,
      "logci": 1725,
      "establih": 1726,
      "progam": 1727,
      "rven": 1728,
      "operait": 1729,
      "listn": 1730,
      "collrct": 1731,
      "sinals": 1732,
      "actvate": 1733,
      "evral": 1734,
      "0x00": 1735,
      "0x38": 1736,
      "0x14": 1737,
      "0x10": 1738,
      "0x28": 1739,
      "0x20": 1740,
      "0x18": 1741,
      "0x04": 1742,
      "0x08": 1743,
      "0x0c": 1744,
      "0x1c": 1745,
      "currrn": 1746,
      "monutor": 1747,
      "output_push_p": 1748,
      "diigtal": 1749,
      "disable": 1750,
      "dirven": 1751,
      "curret": 1752,
      "neds": 1753,
      "1020": 1754,
      "28080": 1755,
      "2880": 1756,
      "205000": 1757,
      "apb2": 1758,
      "periphea": 1759,
      "periphral": 1760,
      "thrugh": 1761,
      "vaue": 1762,
      "inpu_pull_down": 1763,
      "sotware": 1764,
      "0x40004": 1765,
      "0x4000400": 1766,
      "0x40021000": 1767,
      "additionlaly": 1768,
      "brign": 1769,
      "otput_open_drain": 1770,
      "output_opn_drain": 1771,
      "inptu_pull_down": 1772,
      "input_pull_dwn": 1773,
      "lage": 1774,
      "repeatdely": 1775,
      "additinoally": 1776,
      "bolcking": 1777,
      "sginal": 1778,
      "output_puhs": 1779,
      "output_puh_pull": 1780,
      "input_pul_down": 1781,
      "input_pul_ld": 1782,
      "flah": 1783,
      "peiod": 1784,
      "progrm": 1785,
      "estblish": 1786,
      "idng": 1787,
      "shuld": 1788,
      "output_open_darin": 1789,
      "peridically": 1790,
      "something": 1791,
      "iopaen": 1792,
      "iopben": 1793,
      "iopcen": 1794,
      "iopden": 1795,
      "turend": 1796,
      "vltage": 1797,
      "outpu_open_drain": 1798,
      "outpu_top": 1799,
      "assgn": 1800,
      "milliesconds": 1801,
      "perodically": 1802,
      "gpio_output": 1803,
      "gpio_input": 1804,
      "gpio_toggle": 1805,
      "gpio_read": 1806,
      "ipnut_floating": 1807,
      "ipnut_pull_down": 1808,
      "implemet": 1809,
      "implemnet": 1810,
      "operatin": 1811,
      "operatoin": 1812,
      "output_open_drani": 1813,
      "currnt": 1814,
      "bocking": 1815,
      "btyes": 1816,
      "dgiital": 1817,
      "lgic": 1818,
      "otuput_push_pull": 1819,
      "ouptut_open_drain": 1820,
      "swicth": 1821,
      "srting": 1822,
      "uous": 1823,
      "inocming": 1824,
      "outupt_open_drain": 1825,
      "usart2en": 1826,
      "usart1en": 1827,
      "usart3en": 1828,
      "opeartion": 1829,
      "input_ull_up": 1830,
      "input_pll_up": 1831,
      "tim3en": 1832,
      "signasl": 1833,
      "uart_transmit": 1834,
      "uart_receive": 1835,
      "uart_init": 1836,
      "rcc_enable": 1837,
      "rcc_apb1enr": 1838,
      "rcc_apb2enr": 1839,
      "chekc": 1840,
      "activte": 1841,
      "actiavte": 1842,
      "activtae": 1843,
      "input_floatign": 1844,
      "voltge": 1845,
      "voltgae": 1846,
      "voltsge": 1847,
      "0x40000400": 1848,
      "0x40000800": 1849,
      "0x40000000": 1850,
      "0x40010400": 1851,
      "0x40010800": 1852,
      "0x40010c00": 1853,
      "input_pull_donw": 1854,
      "repeately": 1855,
      "ambig": 1856,
      "bilnking": 1857,
      "cature": 1858,
      "catpure": 1859,
      "deect": 1860,
      "deetct": 1861,
      "each": 1862,
      "inteval": 1863,
      "intevral": 1864,
      "inupt_floating": 1865,
      "inupt_pull_down": 1866,
      "reaing": 1867,
      "reaidng": 1868,
      "baudrte": 1869,
      "baudrtae": 1870,
      "inputpull_up": 1871,
      "inputpull_down": 1872,
      "strig": 1873,
      "strign": 1874,
      "prepae": 1875,
      "prepaer": 1876,
      "detetc": 1877,
      "executin": 1878,
      "executon": 1879,
      "softwre": 1880,
      "softwrae": 1881,
      "0x24": 1882,
      "0x2c": 1883,
      "0x34": 1884,
      "0x3c": 1885,
      "0x40011000": 1886,
      "0x40013800": 1887,
      "inpu_tpull_up": 1888,
      "inpu_tpull_down": 1889,
      "valid_parti": 1890,
      "valid_comple": 1891,
      "alternate_push_pull": 1892,
      "partiy": 1893,
      "after": 1894,
      "arriing": 1895,
      "frequ": 1896,
      "falsh": 1897,
      "gipo": 1898,
      "iput_pull_up": 1899,
      "lsten": 1900,
      "lisetn": 1901,
      "none": 1902,
      "poduce": 1903,
      "rgeister": 1904,
      "siwtch": 1905,
      "ugnate": 1906,
      "vlotage": 1907,
      "votlage": 1908,
      "intrval": 1909,
      "invalid": 1910,
      "atcivate": 1911,
      "reigster": 1912,
      "baurate": 1913,
      "alolw": 1914,
      "sholud": 1915,
      "stirng": 1916,
      "input_pulld_own": 1917,
      "senosr": 1918,
      "milliseocnds": 1919,
      "perioidcally": 1920,
      "enabilng": 1921,
      "periodcially": 1922,
      "periodiaclly": 1923,
      "timer_pwm": 1924,
      "osicllate": 1925,
      "prdouce": 1926,
      "prescaler": 1927,
      "peipheral": 1928,
      "repeaedly": 1929,
      "repeaetdly": 1930,
      "repeatedyl": 1931,
      "before": 1932,
      "somrthing": 1933,
      "someting": 1934,
      "messgae": 1935,
      "execuiton": 1936,
      "sofwtare": 1937,
      "captrue": 1938,
      "operaiton": 1939,
      "currrnt": 1940,
      "output_push_pll": 1941,
      "periphearl": 1942,
      "0x40004400": 1943,
      "0x40004000": 1944,
      "output_puhs_pull": 1945,
      "input_pul_ldown": 1946,
      "outpu_topen_drain": 1947,
      "ambiguous": 1948,
      "valid_partial": 1949,
      "valid_complete": 1950,
      "frequency": 1951
    },
    "merges": [
      [
        "u",
        "t"
      ],
      [
        "0",
        "0"
      ],
      [
        "i",
        "n"
      ],
      [
        "a",
        "t"
      ],
      [
        "p",
        "ut"
      ],
      [
        "i",
        "t"
      ],
      [
        "A",
        "R"
      ],
      [
        "S",
        "AR"
      ],
      [
        "U",
        "SAR"
      ],
      [
        "USAR",
        "T"
      ],
      [
        "o",
        "n"
      ],
      [
        "m",
        "s"
      ],
      [
        "s",
        "e"
      ],
      [
        "o",
        "ut"
      ],
      [
        "out",
        "put"
      ],
      [
        "l",
        "l"
      ],
      [
        "2",
        "00"
      ],
      [
        "a",
        "s"
      ],
      [
        "r",
        "e"
      ],
      [
        "u",
        "d"
      ],
      [
        "b",
        "a"
      ],
      [
        "ba",
        "ud"
      ],
      [
        "I",
        "M"
      ],
      [
        "T",
        "IM"
      ],
      [
        "t",
        "o"
      ],
      [
        "l",
        "e"
      ],
      [
        "o",
        "r"
      ],
      [
        "in",
        "put"
      ],
      [
        "p",
        "u"
      ],
      [
        "a",
        "l"
      ],
      [
        "_",
        "pu"
      ],
      [
        "i",
        "g"
      ],
      [
        "e",
        "r"
      ],
      [
        "e",
        "n"
      ],
      [
        "se",
        "t"
      ],
      [
        "a",
        "n"
      ],
      [
        "c",
        "on"
      ],
      [
        "in",
        "g"
      ],
      [
        "1",
        "00"
      ],
      [
        "USART",
        "1"
      ],
      [
        "USART",
        "3"
      ],
      [
        "u",
        "p"
      ],
      [
        "H",
        "z"
      ],
      [
        "M",
        "Hz"
      ],
      [
        "USART",
        "2"
      ],
      [
        "b",
        "l"
      ],
      [
        "u",
        "re"
      ],
      [
        "f",
        "or"
      ],
      [
        "f",
        "ig"
      ],
      [
        "con",
        "fig"
      ],
      [
        "config",
        "ure"
      ],
      [
        "e",
        "l"
      ],
      [
        "6",
        "00"
      ],
      [
        "0",
        "ms"
      ],
      [
        "_pu",
        "ll"
      ],
      [
        "p",
        "in"
      ],
      [
        "it",
        "i"
      ],
      [
        "a",
        "d"
      ],
      [
        "b",
        "it"
      ],
      [
        "u",
        "s"
      ],
      [
        "at",
        "e"
      ],
      [
        "w",
        "it"
      ],
      [
        "in",
        "k"
      ],
      [
        "bl",
        "ink"
      ],
      [
        "s",
        "h"
      ],
      [
        "_",
        "d"
      ],
      [
        "0",
        "MHz"
      ],
      [
        "e",
        "v"
      ],
      [
        "er",
        "y"
      ],
      [
        "t",
        "h"
      ],
      [
        "wit",
        "h"
      ],
      [
        "TIM",
        "4"
      ],
      [
        "TIM",
        "3"
      ],
      [
        "a",
        "y"
      ],
      [
        "d",
        "el"
      ],
      [
        "del",
        "ay"
      ],
      [
        "ev",
        "ery"
      ],
      [
        "set",
        "up"
      ],
      [
        "5",
        "00"
      ],
      [
        "TIM",
        "2"
      ],
      [
        "l",
        "o"
      ],
      [
        "k",
        "e"
      ],
      [
        "1",
        "5"
      ],
      [
        "P",
        "W"
      ],
      [
        "PW",
        "M"
      ],
      [
        "1",
        "15"
      ],
      [
        "115",
        "200"
      ],
      [
        "o",
        "p"
      ],
      [
        "a",
        "ll"
      ],
      [
        "m",
        "a"
      ],
      [
        "s",
        "t"
      ],
      [
        "500",
        "ms"
      ],
      [
        "200",
        "ms"
      ],
      [
        "4",
        "00"
      ],
      [
        "p",
        "or"
      ],
      [
        "por",
        "t"
      ],
      [
        "ma",
        "ke"
      ],
      [
        "o",
        "d"
      ],
      [
        "r",
        "i"
      ],
      [
        "100",
        "ms"
      ],
      [
        "op",
        "en"
      ],
      [
        "3",
        "8"
      ],
      [
        "38",
        "400"
      ],
      [
        "_pu",
        "sh"
      ],
      [
        "1",
        "9"
      ],
      [
        "19",
        "200"
      ],
      [
        "o",
        "f"
      ],
      [
        "all",
        "y"
      ],
      [
        "r",
        "a"
      ],
      [
        "5",
        "7"
      ],
      [
        "200",
        "0ms"
      ],
      [
        "57",
        "600"
      ],
      [
        "9",
        "600"
      ],
      [
        "an",
        "d"
      ],
      [
        "_push",
        "_pull"
      ],
      [
        "output",
        "_"
      ],
      [
        "100",
        "0ms"
      ],
      [
        "al",
        "i"
      ],
      [
        "open",
        "_d"
      ],
      [
        "z",
        "e"
      ],
      [
        "in",
        "iti"
      ],
      [
        "ali",
        "ze"
      ],
      [
        "initi",
        "alize"
      ],
      [
        "c",
        "h"
      ],
      [
        "output",
        "_push_pull"
      ],
      [
        "ra",
        "in"
      ],
      [
        "output_",
        "open_d"
      ],
      [
        "c",
        "k"
      ],
      [
        "g",
        "g"
      ],
      [
        "to",
        "gg"
      ],
      [
        "togg",
        "le"
      ],
      [
        "al",
        "s"
      ],
      [
        "v",
        "e"
      ],
      [
        "on",
        "ally"
      ],
      [
        "d",
        "iti"
      ],
      [
        "output_open_d",
        "rain"
      ],
      [
        "diti",
        "onally"
      ],
      [
        "input",
        "_pull"
      ],
      [
        "2",
        "MHz"
      ],
      [
        "d",
        "at"
      ],
      [
        "dat",
        "a"
      ],
      [
        "ad",
        "ditionally"
      ],
      [
        "th",
        "en"
      ],
      [
        "us",
        "ing"
      ],
      [
        "p",
        "l"
      ],
      [
        "i",
        "ll"
      ],
      [
        "c",
        "e"
      ],
      [
        "als",
        "o"
      ],
      [
        "se",
        "n"
      ],
      [
        "to",
        "p"
      ],
      [
        "s",
        "top"
      ],
      [
        "r",
        "o"
      ],
      [
        "e",
        "ll"
      ],
      [
        "w",
        "ell"
      ],
      [
        "w",
        "h"
      ],
      [
        "le",
        "d"
      ],
      [
        "w",
        "a"
      ],
      [
        "pl",
        "us"
      ],
      [
        "u",
        "se"
      ],
      [
        "5",
        "0MHz"
      ],
      [
        "re",
        "ad"
      ],
      [
        "p",
        "a"
      ],
      [
        "wh",
        "i"
      ],
      [
        "1",
        "0MHz"
      ],
      [
        "d",
        "s"
      ],
      [
        "sen",
        "d"
      ],
      [
        "whi",
        "le"
      ],
      [
        "t",
        "r"
      ],
      [
        "wa",
        "it"
      ],
      [
        "se",
        "ri"
      ],
      [
        "bit",
        "s"
      ],
      [
        "seri",
        "al"
      ],
      [
        "d",
        "ut"
      ],
      [
        "dut",
        "y"
      ],
      [
        "s",
        "m"
      ],
      [
        "e",
        "e"
      ],
      [
        "an",
        "sm"
      ],
      [
        "tr",
        "ansm"
      ],
      [
        "transm",
        "it"
      ],
      [
        "n",
        "el"
      ],
      [
        "c",
        "y"
      ],
      [
        "v",
        "i"
      ],
      [
        "vi",
        "a"
      ],
      [
        "ch",
        "an"
      ],
      [
        "cy",
        "c"
      ],
      [
        "m",
        "ill"
      ],
      [
        "i",
        "ve"
      ],
      [
        "mill",
        "i"
      ],
      [
        "con",
        "ds"
      ],
      [
        "re",
        "ce"
      ],
      [
        "rece",
        "ive"
      ],
      [
        "chan",
        "nel"
      ],
      [
        "cyc",
        "le"
      ],
      [
        "bl",
        "o"
      ],
      [
        "_",
        "up"
      ],
      [
        "milli",
        "se"
      ],
      [
        "C",
        "H"
      ],
      [
        "blo",
        "ck"
      ],
      [
        "millise",
        "conds"
      ],
      [
        "e",
        "t"
      ],
      [
        "2",
        "5"
      ],
      [
        "r",
        "t"
      ],
      [
        "f",
        "lo"
      ],
      [
        "w",
        "an"
      ],
      [
        "wan",
        "t"
      ],
      [
        "o",
        "w"
      ],
      [
        "at",
        "ing"
      ],
      [
        "input",
        "_"
      ],
      [
        "in",
        "it"
      ],
      [
        "m",
        "od"
      ],
      [
        "t",
        "i"
      ],
      [
        "b",
        "s"
      ],
      [
        "ee",
        "d"
      ],
      [
        "bs",
        "ud"
      ],
      [
        "f",
        "l"
      ],
      [
        "flo",
        "ating"
      ],
      [
        "ow",
        "n"
      ],
      [
        "_d",
        "own"
      ],
      [
        "p",
        "er"
      ],
      [
        "c",
        "re"
      ],
      [
        "cre",
        "ate"
      ],
      [
        "7",
        "5"
      ],
      [
        "input_pull",
        "_up"
      ],
      [
        "u",
        "n"
      ],
      [
        "f",
        "ro"
      ],
      [
        "fro",
        "m"
      ],
      [
        "5",
        "0"
      ],
      [
        "input_",
        "floating"
      ],
      [
        "input_pull",
        "_down"
      ],
      [
        "mod",
        "e"
      ],
      [
        "g",
        "p"
      ],
      [
        "b",
        "y"
      ],
      [
        "gp",
        "i"
      ],
      [
        "t",
        "x"
      ],
      [
        "d",
        "ri"
      ],
      [
        "ig",
        "n"
      ],
      [
        "per",
        "i"
      ],
      [
        "u",
        "r"
      ],
      [
        "st",
        "a"
      ],
      [
        "pa",
        "use"
      ],
      [
        "ti",
        "m"
      ],
      [
        "n",
        "2"
      ],
      [
        "en",
        "a"
      ],
      [
        "gpi",
        "o"
      ],
      [
        "s",
        "ign"
      ],
      [
        "g",
        "et"
      ],
      [
        "t",
        "e"
      ],
      [
        "peri",
        "od"
      ],
      [
        "dri",
        "ve"
      ],
      [
        "b",
        "le"
      ],
      [
        "n",
        "1"
      ],
      [
        "tim",
        "er"
      ],
      [
        "c",
        "lo"
      ],
      [
        "clo",
        "ck"
      ],
      [
        "ena",
        "ble"
      ],
      [
        "l",
        "d"
      ],
      [
        "e",
        "c"
      ],
      [
        "r",
        "it"
      ],
      [
        "g",
        "en"
      ],
      [
        "er",
        "ate"
      ],
      [
        "gen",
        "erate"
      ],
      [
        "d",
        "ig"
      ],
      [
        "r",
        "ate"
      ],
      [
        "o",
        "s"
      ],
      [
        "by",
        "te"
      ],
      [
        "dig",
        "it"
      ],
      [
        "g",
        "h"
      ],
      [
        "b",
        "u"
      ],
      [
        "c",
        "o"
      ],
      [
        "u",
        "gh"
      ],
      [
        "os",
        "c"
      ],
      [
        "digit",
        "al"
      ],
      [
        "r",
        "ing"
      ],
      [
        "of",
        "f"
      ],
      [
        "osc",
        "ill"
      ],
      [
        "p",
        "r"
      ],
      [
        "v",
        "al"
      ],
      [
        "t",
        "ur"
      ],
      [
        "s",
        "p"
      ],
      [
        "b",
        "1"
      ],
      [
        "r",
        "un"
      ],
      [
        "s",
        "wit"
      ],
      [
        "swit",
        "ch"
      ],
      [
        "i",
        "c"
      ],
      [
        "st",
        "ate"
      ],
      [
        "ro",
        "ugh"
      ],
      [
        "in",
        "to"
      ],
      [
        "block",
        "ing"
      ],
      [
        "sp",
        "eed"
      ],
      [
        "od",
        "u"
      ],
      [
        "pr",
        "odu"
      ],
      [
        "th",
        "rough"
      ],
      [
        "tur",
        "n"
      ],
      [
        "i",
        "p"
      ],
      [
        "o",
        "u"
      ],
      [
        "as",
        "h"
      ],
      [
        "lo",
        "w"
      ],
      [
        "produ",
        "ce"
      ],
      [
        "p",
        "p"
      ],
      [
        "fl",
        "ash"
      ],
      [
        "oscill",
        "ate"
      ],
      [
        "w",
        "rit"
      ],
      [
        "ou",
        "ld"
      ],
      [
        "writ",
        "e"
      ],
      [
        "a",
        "1"
      ],
      [
        "i",
        "on"
      ],
      [
        "fl",
        "ip"
      ],
      [
        "sh",
        "ould"
      ],
      [
        "a",
        "rt"
      ],
      [
        "run",
        "n"
      ],
      [
        "b",
        "ring"
      ],
      [
        "th",
        "e"
      ],
      [
        "ec",
        "t"
      ],
      [
        "u",
        "art"
      ],
      [
        "runn",
        "ing"
      ],
      [
        "9",
        "n2"
      ],
      [
        "c",
        "c"
      ],
      [
        "p",
        "re"
      ],
      [
        "s",
        "a"
      ],
      [
        "n",
        "eed"
      ],
      [
        "r",
        "cc"
      ],
      [
        "co",
        "m"
      ],
      [
        "a",
        "2"
      ],
      [
        "as",
        "sign"
      ],
      [
        "a",
        "5"
      ],
      [
        "a",
        "6"
      ],
      [
        "8",
        "n2"
      ],
      [
        "8",
        "n1"
      ],
      [
        "a",
        "3"
      ],
      [
        "en",
        "t"
      ],
      [
        "w",
        "ut"
      ],
      [
        "pa",
        "re"
      ],
      [
        "b",
        "9"
      ],
      [
        "com",
        "ing"
      ],
      [
        "a",
        "0"
      ],
      [
        "b",
        "7"
      ],
      [
        "p",
        "le"
      ],
      [
        "wut",
        "h"
      ],
      [
        "9",
        "n1"
      ],
      [
        "b",
        "8"
      ],
      [
        "p",
        "e"
      ],
      [
        "pre",
        "pare"
      ],
      [
        "g",
        "e"
      ],
      [
        "b",
        "6"
      ],
      [
        "baud",
        "rate"
      ],
      [
        "b",
        "0"
      ],
      [
        "b",
        "5"
      ],
      [
        "f",
        "f"
      ],
      [
        "h",
        "ig"
      ],
      [
        "hig",
        "h"
      ],
      [
        "a",
        "4"
      ],
      [
        "in",
        "coming"
      ],
      [
        "m",
        "ple"
      ],
      [
        "t",
        "er"
      ],
      [
        "r",
        "x"
      ],
      [
        "ms",
        "ke"
      ],
      [
        "i",
        "s"
      ],
      [
        "n",
        "ee"
      ],
      [
        "bu",
        "ff"
      ],
      [
        "a",
        "7"
      ],
      [
        "in",
        "ter"
      ],
      [
        "i",
        "st"
      ],
      [
        "d",
        "u"
      ],
      [
        "u",
        "e"
      ],
      [
        "nee",
        "ds"
      ],
      [
        "sign",
        "als"
      ],
      [
        "pp",
        "rt"
      ],
      [
        "d",
        "sta"
      ],
      [
        "r",
        "n"
      ],
      [
        "s",
        "l"
      ],
      [
        "st",
        "all"
      ],
      [
        "CH",
        "1"
      ],
      [
        "p",
        "o"
      ],
      [
        "inter",
        "val"
      ],
      [
        "CH",
        "2"
      ],
      [
        "period",
        "ic"
      ],
      [
        "p",
        "ro"
      ],
      [
        "re",
        "pe"
      ],
      [
        "200",
        "0"
      ],
      [
        "sta",
        "rt"
      ],
      [
        "m",
        "e"
      ],
      [
        "p",
        "t"
      ],
      [
        "CH",
        "4"
      ],
      [
        "b",
        "e"
      ],
      [
        "buff",
        "er"
      ],
      [
        "d",
        "l"
      ],
      [
        "CH",
        "3"
      ],
      [
        "dl",
        "y"
      ],
      [
        "w",
        "s"
      ],
      [
        "periodic",
        "ally"
      ],
      [
        "lo",
        "ad"
      ],
      [
        "p",
        "b"
      ],
      [
        "ba",
        "du"
      ],
      [
        "byte",
        "s"
      ],
      [
        "d",
        "et"
      ],
      [
        "n",
        "o"
      ],
      [
        "bu",
        "ad"
      ],
      [
        "e",
        "x"
      ],
      [
        "s",
        "o"
      ],
      [
        "me",
        "s"
      ],
      [
        "ut",
        "ion"
      ],
      [
        "sa",
        "ge"
      ],
      [
        "det",
        "ect"
      ],
      [
        "ex",
        "ec"
      ],
      [
        "v",
        "el"
      ],
      [
        "w",
        "or"
      ],
      [
        "ate",
        "dly"
      ],
      [
        "val",
        "ue"
      ],
      [
        "repe",
        "atedly"
      ],
      [
        "wor",
        "k"
      ],
      [
        "h",
        "al"
      ],
      [
        "bl",
        "i"
      ],
      [
        "hal",
        "t"
      ],
      [
        "s",
        "of"
      ],
      [
        "exec",
        "ution"
      ],
      [
        "bli",
        "sh"
      ],
      [
        "mes",
        "sage"
      ],
      [
        "sof",
        "t"
      ],
      [
        "c",
        "a"
      ],
      [
        "m",
        "ent"
      ],
      [
        "100",
        "0"
      ],
      [
        "i",
        "mple"
      ],
      [
        "lo",
        "g"
      ],
      [
        "rit",
        "y"
      ],
      [
        "wa",
        "re"
      ],
      [
        "e",
        "sta"
      ],
      [
        "pro",
        "g"
      ],
      [
        "esta",
        "blish"
      ],
      [
        "r",
        "v"
      ],
      [
        "le",
        "vel"
      ],
      [
        "pt",
        "ure"
      ],
      [
        "soft",
        "ware"
      ],
      [
        "imple",
        "ment"
      ],
      [
        "op",
        "er"
      ],
      [
        "pa",
        "rity"
      ],
      [
        "ca",
        "pture"
      ],
      [
        "rv",
        "ery"
      ],
      [
        "p",
        "c"
      ],
      [
        "th",
        "rn"
      ],
      [
        "sen",
        "se"
      ],
      [
        "n",
        "t"
      ],
      [
        "t",
        "a"
      ],
      [
        "at",
        "ion"
      ],
      [
        "log",
        "ic"
      ],
      [
        "pu",
        "sh"
      ],
      [
        "ra",
        "m"
      ],
      [
        "ch",
        "e"
      ],
      [
        "prog",
        "ram"
      ],
      [
        "d",
        "ur"
      ],
      [
        "sl",
        "so"
      ],
      [
        "dur",
        "y"
      ],
      [
        "che",
        "ck"
      ],
      [
        "un",
        "g"
      ],
      [
        "oper",
        "ation"
      ],
      [
        "l",
        "ist"
      ],
      [
        "co",
        "ll"
      ],
      [
        "o",
        "ld"
      ],
      [
        "st",
        "ring"
      ],
      [
        "po",
        "ll"
      ],
      [
        "c",
        "ent"
      ],
      [
        "f",
        "eed"
      ],
      [
        "r",
        "ri"
      ],
      [
        "read",
        "ing"
      ],
      [
        "coll",
        "ect"
      ],
      [
        "w",
        "i"
      ],
      [
        "mod",
        "r"
      ],
      [
        "ws",
        "it"
      ],
      [
        "rri",
        "v"
      ],
      [
        "st",
        "e"
      ],
      [
        "output_open_d",
        "r"
      ],
      [
        "list",
        "en"
      ],
      [
        "h",
        "old"
      ],
      [
        "per",
        "cent"
      ],
      [
        "rriv",
        "ing"
      ],
      [
        "f",
        "r"
      ],
      [
        "p",
        "d"
      ],
      [
        "s",
        "in"
      ],
      [
        "a",
        "e"
      ],
      [
        "e",
        "d"
      ],
      [
        "o",
        "v"
      ],
      [
        "r",
        "ll"
      ],
      [
        "w",
        "rll"
      ],
      [
        "a",
        "c"
      ],
      [
        "st",
        "pp"
      ],
      [
        "output_open_dr",
        "sin"
      ],
      [
        "l",
        "r"
      ],
      [
        "ev",
        "r"
      ],
      [
        "a",
        "rriving"
      ],
      [
        "gpio",
        "b"
      ],
      [
        "evr",
        "y"
      ],
      [
        "i",
        "f"
      ],
      [
        "8",
        "00"
      ],
      [
        "b",
        "ut"
      ],
      [
        "n",
        "g"
      ],
      [
        "s",
        "d"
      ],
      [
        "ov",
        "er"
      ],
      [
        "but",
        "s"
      ],
      [
        "8",
        "2"
      ],
      [
        "g",
        "ist"
      ],
      [
        "n",
        "nel"
      ],
      [
        "o",
        "l"
      ],
      [
        "put",
        "_pull"
      ],
      [
        "gpio",
        "c"
      ],
      [
        "e",
        "y"
      ],
      [
        "k",
        "ae"
      ],
      [
        "m",
        "kae"
      ],
      [
        "ev",
        "ey"
      ],
      [
        "un",
        "put_pull"
      ],
      [
        "gpi",
        "od"
      ],
      [
        "gpio",
        "a"
      ],
      [
        "sa",
        "mple"
      ],
      [
        "1",
        "4"
      ],
      [
        "p",
        "m"
      ],
      [
        "p",
        "s"
      ],
      [
        "ws",
        "nt"
      ],
      [
        "gist",
        "er"
      ],
      [
        "d",
        "a"
      ],
      [
        "wi",
        "h"
      ],
      [
        "0",
        "x"
      ],
      [
        "c",
        "ur"
      ],
      [
        "d",
        "ta"
      ],
      [
        "m",
        "on"
      ],
      [
        "s",
        "s"
      ],
      [
        "put",
        "_push_pull"
      ],
      [
        "re",
        "gister"
      ],
      [
        "bl",
        "ing"
      ],
      [
        "fr",
        "pm"
      ],
      [
        "dta",
        "a"
      ],
      [
        "m",
        "o"
      ],
      [
        "r",
        "r"
      ],
      [
        "v",
        "ate"
      ],
      [
        "it",
        "or"
      ],
      [
        "us",
        "ung"
      ],
      [
        "dri",
        "v"
      ],
      [
        "mon",
        "itor"
      ],
      [
        "e",
        "k"
      ],
      [
        "output",
        "_push"
      ],
      [
        "re",
        "d"
      ],
      [
        "ma",
        "ek"
      ],
      [
        "po",
        "tr"
      ],
      [
        "w",
        "ti"
      ],
      [
        "ena",
        "bling"
      ],
      [
        "9",
        "2"
      ],
      [
        "s",
        "nnel"
      ],
      [
        "put",
        "put_push_pull"
      ],
      [
        "open_d",
        "rain"
      ],
      [
        "ch",
        "snnel"
      ],
      [
        "_",
        "open_drain"
      ],
      [
        "d",
        "i"
      ],
      [
        "g",
        "pu"
      ],
      [
        "i",
        "l"
      ],
      [
        "_d",
        "rain"
      ],
      [
        "input_",
        "flo"
      ],
      [
        "ti",
        "vate"
      ],
      [
        "da",
        "at"
      ],
      [
        "wih",
        "t"
      ],
      [
        "cur",
        "re"
      ],
      [
        "wti",
        "h"
      ],
      [
        "gpu",
        "o"
      ],
      [
        "n",
        "e"
      ],
      [
        "pro",
        "t"
      ],
      [
        "curre",
        "nt"
      ],
      [
        "e",
        "evry"
      ],
      [
        "v",
        "ol"
      ],
      [
        "sd",
        "ditionally"
      ],
      [
        "ps",
        "use"
      ],
      [
        "1",
        "0"
      ],
      [
        "w",
        "at"
      ],
      [
        "tur",
        "m"
      ],
      [
        "ta",
        "ge"
      ],
      [
        "ac",
        "tivate"
      ],
      [
        "1",
        "200"
      ],
      [
        "2",
        "8"
      ],
      [
        "t",
        "u"
      ],
      [
        "wh",
        "at"
      ],
      [
        "un",
        "to"
      ],
      [
        "2",
        "0"
      ],
      [
        "8",
        "1"
      ],
      [
        "a",
        "pb"
      ],
      [
        "h",
        "ugh"
      ],
      [
        "t",
        "ing"
      ],
      [
        "unput_pull",
        "_up"
      ],
      [
        "vol",
        "tage"
      ],
      [
        "9",
        "1"
      ],
      [
        "p",
        "h"
      ],
      [
        "u",
        "is"
      ],
      [
        "re",
        "y"
      ],
      [
        "ev",
        "rey"
      ],
      [
        "th",
        "ne"
      ],
      [
        "whi",
        "lr"
      ],
      [
        "peri",
        "ph"
      ],
      [
        "driv",
        "en"
      ],
      [
        "uis",
        "ng"
      ],
      [
        "1",
        "3"
      ],
      [
        "4",
        "800"
      ],
      [
        "P",
        "B"
      ],
      [
        "d",
        "tu"
      ],
      [
        "al",
        "os"
      ],
      [
        "for",
        "m"
      ],
      [
        "ad",
        "diti"
      ],
      [
        "us",
        "rt"
      ],
      [
        "st",
        "ing"
      ],
      [
        "st",
        "po"
      ],
      [
        "st",
        "ste"
      ],
      [
        "milli",
        "s"
      ],
      [
        "fl",
        "up"
      ],
      [
        "evey",
        "r"
      ],
      [
        "unput_pull",
        "_down"
      ],
      [
        "mo",
        "ed"
      ],
      [
        "28",
        "800"
      ],
      [
        "dtu",
        "y"
      ],
      [
        "2",
        "500"
      ],
      [
        "P",
        "A"
      ],
      [
        "_",
        "floating"
      ],
      [
        "e",
        "ery"
      ],
      [
        "h",
        "g"
      ],
      [
        "i",
        "ble"
      ],
      [
        "l",
        "s"
      ],
      [
        "n",
        "red"
      ],
      [
        "ad",
        "d"
      ],
      [
        "th",
        "r"
      ],
      [
        "ce",
        "ss"
      ],
      [
        "cyc",
        "lr"
      ],
      [
        "blo",
        "k"
      ],
      [
        "oscill",
        "ste"
      ],
      [
        "ac",
        "cess"
      ],
      [
        "input_flo",
        "sting"
      ],
      [
        "periph",
        "er"
      ],
      [
        "2500",
        "00"
      ],
      [
        "access",
        "ible"
      ],
      [
        "_",
        "p"
      ],
      [
        "n",
        "ig"
      ],
      [
        "r",
        "conds"
      ],
      [
        "s",
        "sh"
      ],
      [
        "out",
        "pt"
      ],
      [
        "_pu",
        "l"
      ],
      [
        "set",
        "ting"
      ],
      [
        "_up",
        "ll"
      ],
      [
        "fl",
        "ssh"
      ],
      [
        "digit",
        "sl"
      ],
      [
        "turn",
        "ed"
      ],
      [
        "14",
        "400"
      ],
      [
        "wat",
        "i"
      ],
      [
        "millis",
        "rconds"
      ],
      [
        "h",
        "n"
      ],
      [
        "s",
        "u"
      ],
      [
        "u",
        "ll"
      ],
      [
        "v",
        "a"
      ],
      [
        "y",
        "t"
      ],
      [
        "in",
        "pu"
      ],
      [
        "as",
        "lo"
      ],
      [
        "pu",
        "ll"
      ],
      [
        "pu",
        "ld"
      ],
      [
        "_pull",
        "_up"
      ],
      [
        "sh",
        "puld"
      ],
      [
        "pl",
        "su"
      ],
      [
        "cy",
        "le"
      ],
      [
        "block",
        "ung"
      ],
      [
        "te",
        "hn"
      ],
      [
        "so",
        "t"
      ],
      [
        "wi",
        "at"
      ],
      [
        "fr",
        "mo"
      ],
      [
        "0x",
        "400"
      ],
      [
        "additi",
        "on"
      ],
      [
        "1",
        "2"
      ],
      [
        "2",
        "400"
      ],
      [
        "b",
        "r"
      ],
      [
        "i",
        "e"
      ],
      [
        "o",
        "t"
      ],
      [
        "s",
        "ll"
      ],
      [
        "w",
        "n"
      ],
      [
        "in",
        "ut"
      ],
      [
        "se",
        "conds"
      ],
      [
        "pu",
        "gh"
      ],
      [
        "en",
        "_drain"
      ],
      [
        "us",
        "ign"
      ],
      [
        "all",
        "ow"
      ],
      [
        "output_",
        "op"
      ],
      [
        "by",
        "tr"
      ],
      [
        "du",
        "yt"
      ],
      [
        "thr",
        "pugh"
      ],
      [
        "blok",
        "c"
      ],
      [
        "peripher",
        "al"
      ],
      [
        "1",
        "1"
      ],
      [
        "p",
        "ck"
      ],
      [
        "r",
        "ve"
      ],
      [
        "r",
        "ste"
      ],
      [
        "u",
        "ing"
      ],
      [
        "in",
        "pt"
      ],
      [
        "pu",
        "ls"
      ],
      [
        "al",
        "y"
      ],
      [
        "bl",
        "pck"
      ],
      [
        "us",
        "nig"
      ],
      [
        "lo",
        "sd"
      ],
      [
        "whi",
        "el"
      ],
      [
        "chan",
        "n"
      ],
      [
        "millise",
        "c"
      ],
      [
        "un",
        "coming"
      ],
      [
        "ung",
        "ate"
      ],
      [
        "lr",
        "vel"
      ],
      [
        "il",
        "ate"
      ],
      [
        "br",
        "ig"
      ],
      [
        "wn",
        "at"
      ],
      [
        "inpt",
        "u"
      ],
      [
        "_",
        "ull"
      ],
      [
        "i",
        "m"
      ],
      [
        "o",
        "e"
      ],
      [
        "p",
        "n"
      ],
      [
        "w",
        "le"
      ],
      [
        "up",
        "t"
      ],
      [
        "st",
        "te"
      ],
      [
        "input_pull",
        "_d"
      ],
      [
        "tim",
        "rr"
      ],
      [
        "buff",
        "rr"
      ],
      [
        "ss",
        "sign"
      ],
      [
        "di",
        "rve"
      ],
      [
        "sot",
        "p"
      ],
      [
        "addition",
        "aly"
      ],
      [
        "wle",
        "l"
      ],
      [
        "1",
        "8"
      ],
      [
        "_",
        "t"
      ],
      [
        "a",
        "se"
      ],
      [
        "b",
        "ti"
      ],
      [
        "b",
        "ist"
      ],
      [
        "b",
        "ol"
      ],
      [
        "g",
        "ate"
      ],
      [
        "h",
        "sl"
      ],
      [
        "i",
        "onally"
      ],
      [
        "l",
        "a"
      ],
      [
        "l",
        "it"
      ],
      [
        "l",
        "ie"
      ],
      [
        "m",
        "er"
      ],
      [
        "t",
        "mer"
      ],
      [
        "u",
        "l"
      ],
      [
        "it",
        "al"
      ],
      [
        "pu",
        "ase"
      ],
      [
        "_pull",
        "_down"
      ],
      [
        "iti",
        "onally"
      ],
      [
        "ad",
        "itionally"
      ],
      [
        "us",
        "ng"
      ],
      [
        "sh",
        "_pull"
      ],
      [
        "output_",
        "p"
      ],
      [
        "output_",
        "open"
      ],
      [
        "pl",
        "ul"
      ],
      [
        "wh",
        "lie"
      ],
      [
        "pa",
        "ue"
      ],
      [
        "whi",
        "e"
      ],
      [
        "sign",
        "sl"
      ],
      [
        "osc",
        "ilate"
      ],
      [
        "run",
        "g"
      ],
      [
        "repe",
        "at"
      ],
      [
        "ov",
        "rr"
      ],
      [
        "output_push",
        "_upll"
      ],
      [
        "add",
        "it"
      ],
      [
        "chann",
        "le"
      ],
      [
        "bti",
        "s"
      ],
      [
        "bol",
        "ck"
      ],
      [
        "hsl",
        "t"
      ],
      [
        "b",
        "rung"
      ],
      [
        "f",
        "red"
      ],
      [
        "h",
        "i"
      ],
      [
        "i",
        "seconds"
      ],
      [
        "k",
        "ing"
      ],
      [
        "s",
        "g"
      ],
      [
        "s",
        "or"
      ],
      [
        "t",
        "rough"
      ],
      [
        "ut",
        "_open_drain"
      ],
      [
        "in",
        "ot"
      ],
      [
        "output",
        "_pu"
      ],
      [
        "input",
        "_pul"
      ],
      [
        "bl",
        "co"
      ],
      [
        "ad",
        "di"
      ],
      [
        "us",
        "ig"
      ],
      [
        "wh",
        "le"
      ],
      [
        "fl",
        "a"
      ],
      [
        "b1",
        "2"
      ],
      [
        "pp",
        "ll"
      ],
      [
        "pe",
        "i"
      ],
      [
        "prog",
        "r"
      ],
      [
        "ed",
        "e"
      ],
      [
        "wih",
        "le"
      ],
      [
        "driv",
        "r"
      ],
      [
        "output_push",
        "_pul"
      ],
      [
        "wat",
        "n"
      ],
      [
        "add",
        "ti"
      ],
      [
        "va",
        "le"
      ],
      [
        "hi",
        "hg"
      ],
      [
        "1",
        "6"
      ],
      [
        "1",
        "7"
      ],
      [
        "b",
        "rn"
      ],
      [
        "b",
        "20"
      ],
      [
        "c",
        "r"
      ],
      [
        "c",
        "t"
      ],
      [
        "d",
        "_"
      ],
      [
        "d",
        "ive"
      ],
      [
        "d",
        "oe"
      ],
      [
        "e",
        "st"
      ],
      [
        "f",
        "o"
      ],
      [
        "h",
        "lo"
      ],
      [
        "i",
        "d"
      ],
      [
        "i",
        "h"
      ],
      [
        "l",
        "ve"
      ],
      [
        "m",
        "r"
      ],
      [
        "m",
        "il"
      ],
      [
        "m",
        "doe"
      ],
      [
        "n",
        "an"
      ],
      [
        "o",
        "ugh"
      ],
      [
        "p",
        "_ull"
      ],
      [
        "r",
        "od"
      ],
      [
        "s",
        "at"
      ],
      [
        "s",
        "it"
      ],
      [
        "s",
        "ate"
      ],
      [
        "s",
        "wut"
      ],
      [
        "s",
        "rn"
      ],
      [
        "s",
        "rriving"
      ],
      [
        "t",
        "un"
      ],
      [
        "u",
        "c"
      ],
      [
        "v",
        "sl"
      ],
      [
        "w",
        "pr"
      ],
      [
        "put",
        "_open_drain"
      ],
      [
        "out",
        "ut_open_drain"
      ],
      [
        "input",
        "_upll"
      ],
      [
        "en",
        "l"
      ],
      [
        "up",
        "sh_pull"
      ],
      [
        "sh",
        "u"
      ],
      [
        "lo",
        "ating"
      ],
      [
        "od",
        "s"
      ],
      [
        "output_",
        "upsh_pull"
      ],
      [
        "ch",
        "nnel"
      ],
      [
        "ch",
        "nan"
      ],
      [
        "output_open_d",
        "a"
      ],
      [
        "chan",
        "el"
      ],
      [
        "chan",
        "enl"
      ],
      [
        "cyc",
        "el"
      ],
      [
        "by",
        "t"
      ],
      [
        "by",
        "et"
      ],
      [
        "peri",
        "d"
      ],
      [
        "tim",
        "e"
      ],
      [
        "tim",
        "r"
      ],
      [
        "bu",
        "f"
      ],
      [
        "oscill",
        "te"
      ],
      [
        "oscill",
        "ae"
      ],
      [
        "sp",
        "red"
      ],
      [
        "produ",
        "cr"
      ],
      [
        "a1",
        "2"
      ],
      [
        "so",
        "me"
      ],
      [
        "mes",
        "ss"
      ],
      [
        "log",
        "uc"
      ],
      [
        "ta",
        "e"
      ],
      [
        "wi",
        "le"
      ],
      [
        "hg",
        "ih"
      ],
      [
        "outpt",
        "_open_drain"
      ],
      [
        "inpu",
        "_t"
      ],
      [
        "inut",
        "_floating"
      ],
      [
        "output_op",
        "e"
      ],
      [
        "im",
        "pl"
      ],
      [
        "output_p",
        "en_drain"
      ],
      [
        "output_open",
        "_"
      ],
      [
        "pei",
        "rod"
      ],
      [
        "hlo",
        "d"
      ],
      [
        "lve",
        "el"
      ],
      [
        "sat",
        "te"
      ],
      [
        "swut",
        "ch"
      ],
      [
        "tun",
        "r"
      ],
      [
        "wpr",
        "k"
      ],
      [
        "chnan",
        "el"
      ],
      [
        "messs",
        "ge"
      ],
      [
        "0",
        "4"
      ],
      [
        "2",
        "en"
      ],
      [
        "_",
        "h"
      ],
      [
        "a",
        "et"
      ],
      [
        "b",
        "2"
      ],
      [
        "b",
        "o"
      ],
      [
        "b",
        "t"
      ],
      [
        "c",
        "m"
      ],
      [
        "c",
        "an"
      ],
      [
        "c",
        "cyle"
      ],
      [
        "d",
        "0"
      ],
      [
        "e",
        "mr"
      ],
      [
        "h",
        "l"
      ],
      [
        "h",
        "s"
      ],
      [
        "h",
        "_pull"
      ],
      [
        "h",
        "pl"
      ],
      [
        "h",
        "nnel"
      ],
      [
        "i",
        "op"
      ],
      [
        "n",
        "ut"
      ],
      [
        "o",
        "ally"
      ],
      [
        "p",
        "as"
      ],
      [
        "r",
        "ck"
      ],
      [
        "s",
        "ould"
      ],
      [
        "s",
        "blish"
      ],
      [
        "s",
        "_h"
      ],
      [
        "t",
        "ure"
      ],
      [
        "u",
        "le"
      ],
      [
        "u",
        "_p"
      ],
      [
        "v",
        "l"
      ],
      [
        "w",
        "on"
      ],
      [
        "y",
        "e"
      ],
      [
        "in",
        "ally"
      ],
      [
        "in",
        "com"
      ],
      [
        "it",
        "no"
      ],
      [
        "out",
        "pu"
      ],
      [
        "ll",
        "y"
      ],
      [
        "as",
        "sg"
      ],
      [
        "pu",
        "se"
      ],
      [
        "bl",
        "ck"
      ],
      [
        "th",
        "ro"
      ],
      [
        "ri",
        "od"
      ],
      [
        "ch",
        "ck"
      ],
      [
        "ch",
        "ce"
      ],
      [
        "ch",
        "rck"
      ],
      [
        "input_pull",
        "_pu"
      ],
      [
        "input_pull",
        "u_p"
      ],
      [
        "sen",
        "sor"
      ],
      [
        "pa",
        "se"
      ],
      [
        "tr",
        "un"
      ],
      [
        "sm",
        "ple"
      ],
      [
        "milli",
        "e"
      ],
      [
        "input_",
        "plul"
      ],
      [
        "ti",
        "emr"
      ],
      [
        "bsud",
        "rate"
      ],
      [
        "fl",
        "sa"
      ],
      [
        "per",
        "od"
      ],
      [
        "ur",
        "at"
      ],
      [
        "gpio",
        "_"
      ],
      [
        "dig",
        "i"
      ],
      [
        "b1",
        "7"
      ],
      [
        "run",
        "ing"
      ],
      [
        "ip",
        "nut"
      ],
      [
        "a1",
        "0"
      ],
      [
        "cc",
        "le"
      ],
      [
        "pre",
        "ps"
      ],
      [
        "periodic",
        "sll"
      ],
      [
        "ws",
        "re"
      ],
      [
        "soft",
        "wsre"
      ],
      [
        "ca",
        "hnnel"
      ],
      [
        "imple",
        "m"
      ],
      [
        "oper",
        "at"
      ],
      [
        "list",
        "rn"
      ],
      [
        "output_open_dr",
        "an"
      ],
      [
        "ps",
        "rity"
      ],
      [
        "cur",
        "rn"
      ],
      [
        "driv",
        "rn"
      ],
      [
        "di",
        "ital"
      ],
      [
        "ne",
        "_drain"
      ],
      [
        "outpt",
        "_push_pull"
      ],
      [
        "va",
        "ule"
      ],
      [
        "output_op",
        "ne_drain"
      ],
      [
        "millisec",
        "n"
      ],
      [
        "inptu",
        "_floating"
      ],
      [
        "inptu",
        "_pull_up"
      ],
      [
        "input_pull_d",
        "won"
      ],
      [
        "lit",
        "en"
      ],
      [
        "signsl",
        "s"
      ],
      [
        "output_pu",
        "s_h"
      ],
      [
        "input_pul",
        "_up"
      ],
      [
        "blco",
        "k"
      ],
      [
        "addti",
        "ionally"
      ],
      [
        "est",
        "sblish"
      ],
      [
        "fo",
        "ating"
      ],
      [
        "shu",
        "old"
      ],
      [
        "output_open_da",
        "in"
      ],
      [
        "bo",
        "ck"
      ],
      [
        "bt",
        "ye"
      ],
      [
        "cm",
        "ing"
      ],
      [
        "can",
        "nel"
      ],
      [
        "hl",
        "at"
      ],
      [
        "hpl",
        "d"
      ],
      [
        "pas",
        "ue"
      ],
      [
        "chce",
        "k"
      ],
      [
        "input_plul",
        "_up"
      ],
      [
        "flsa",
        "h"
      ],
      [
        "preps",
        "re"
      ],
      [
        "periodicsll",
        "y"
      ],
      [
        "output_pus_h",
        "pull"
      ],
      [
        "0",
        "8"
      ],
      [
        "P",
        "C"
      ],
      [
        "_",
        "plul"
      ],
      [
        "a",
        "p"
      ],
      [
        "a",
        "it"
      ],
      [
        "b",
        "ing"
      ],
      [
        "c",
        "i"
      ],
      [
        "c",
        "sp"
      ],
      [
        "c",
        "ution"
      ],
      [
        "c",
        "tivate"
      ],
      [
        "d",
        "g"
      ],
      [
        "d",
        "r"
      ],
      [
        "d",
        "y"
      ],
      [
        "d",
        "rt"
      ],
      [
        "e",
        "sage"
      ],
      [
        "e",
        "fr"
      ],
      [
        "f",
        "as"
      ],
      [
        "f",
        "ash"
      ],
      [
        "f",
        "ol"
      ],
      [
        "f",
        "il"
      ],
      [
        "g",
        "n"
      ],
      [
        "g",
        "ste"
      ],
      [
        "h",
        "u"
      ],
      [
        "h",
        "ough"
      ],
      [
        "i",
        "od"
      ],
      [
        "l",
        "g"
      ],
      [
        "l",
        "vel"
      ],
      [
        "m",
        "ll"
      ],
      [
        "n",
        "d"
      ],
      [
        "n",
        "re"
      ],
      [
        "n",
        "ede"
      ],
      [
        "o",
        "c"
      ],
      [
        "o",
        "tu"
      ],
      [
        "o",
        "_p"
      ],
      [
        "o",
        "upt"
      ],
      [
        "p",
        "ll"
      ],
      [
        "r",
        "ment"
      ],
      [
        "r",
        "cent"
      ],
      [
        "r",
        "da"
      ],
      [
        "s",
        "w"
      ],
      [
        "s",
        "rt"
      ],
      [
        "s",
        "bling"
      ],
      [
        "s",
        "ie"
      ],
      [
        "s",
        "smple"
      ],
      [
        "s",
        "ctivate"
      ],
      [
        "t",
        "ch"
      ],
      [
        "u",
        "o"
      ],
      [
        "u",
        "at"
      ],
      [
        "u",
        "_open_drain"
      ],
      [
        "v",
        "ali"
      ],
      [
        "ut",
        "_push_pull"
      ],
      [
        "in",
        "o"
      ],
      [
        "in",
        "co"
      ],
      [
        "in",
        "cming"
      ],
      [
        "it",
        "onally"
      ],
      [
        "on",
        "ds"
      ],
      [
        "ms",
        "esage"
      ],
      [
        "se",
        "pe"
      ],
      [
        "out",
        "upt"
      ],
      [
        "output",
        "o_p"
      ],
      [
        "baud",
        "art"
      ],
      [
        "le",
        "ev"
      ],
      [
        "input",
        "p_ull"
      ],
      [
        "ig",
        "c"
      ],
      [
        "en",
        "sbling"
      ],
      [
        "us",
        "art"
      ],
      [
        "lo",
        "igc"
      ],
      [
        "op",
        "e"
      ],
      [
        "op",
        "rn"
      ],
      [
        "st",
        "ion"
      ],
      [
        "st",
        "sll"
      ],
      [
        "st",
        "tae"
      ],
      [
        "output_",
        "oe"
      ],
      [
        "input_pull",
        "_p"
      ],
      [
        "ill",
        "ate"
      ],
      [
        "tr",
        "hough"
      ],
      [
        "vi",
        "e"
      ],
      [
        "mill",
        "sie"
      ],
      [
        "input_",
        "ull"
      ],
      [
        "input_",
        "loating"
      ],
      [
        "input_",
        "fol"
      ],
      [
        "input_",
        "pll"
      ],
      [
        "un",
        "ic"
      ],
      [
        "sta",
        "e"
      ],
      [
        "sta",
        "et"
      ],
      [
        "tim",
        "3"
      ],
      [
        "tim",
        "re"
      ],
      [
        "sign",
        "as"
      ],
      [
        "sign",
        "al"
      ],
      [
        "oscill",
        "aet"
      ],
      [
        "pr",
        "rcent"
      ],
      [
        "sp",
        "ed"
      ],
      [
        "b1",
        "0"
      ],
      [
        "b1",
        "6"
      ],
      [
        "b1",
        "8"
      ],
      [
        "a1",
        "1"
      ],
      [
        "a1",
        "6"
      ],
      [
        "a1",
        "8"
      ],
      [
        "runn",
        "ung"
      ],
      [
        "uart",
        "_"
      ],
      [
        "pre",
        "iod"
      ],
      [
        "sa",
        "pm"
      ],
      [
        "rcc",
        "_"
      ],
      [
        "a2",
        "0"
      ],
      [
        "pe",
        "pare"
      ],
      [
        "repe",
        "ste"
      ],
      [
        "me",
        "sage"
      ],
      [
        "so",
        "hu"
      ],
      [
        "oper",
        "stion"
      ],
      [
        "ta",
        "ing"
      ],
      [
        "push",
        "_pull"
      ],
      [
        "che",
        "k"
      ],
      [
        "ac",
        "ti"
      ],
      [
        "output_push",
        "_ull"
      ],
      [
        "output_push",
        "_plul"
      ],
      [
        "input_flo",
        "at"
      ],
      [
        "input_flo",
        "taing"
      ],
      [
        "vol",
        "t"
      ],
      [
        "additi",
        "oally"
      ],
      [
        "peripher",
        "sl"
      ],
      [
        "outpt",
        "u_open_drain"
      ],
      [
        "inpu",
        "_pull_up"
      ],
      [
        "0x400",
        "00"
      ],
      [
        "0x400",
        "10"
      ],
      [
        "sll",
        "ow"
      ],
      [
        "inut",
        "_pull_down"
      ],
      [
        "millisec",
        "ods"
      ],
      [
        "im",
        "ng"
      ],
      [
        "pn",
        "_drain"
      ],
      [
        "input_pull_d",
        "on"
      ],
      [
        "la",
        "od"
      ],
      [
        "lit",
        "sen"
      ],
      [
        "paue",
        "s"
      ],
      [
        "repeat",
        "el"
      ],
      [
        "repeat",
        "dly"
      ],
      [
        "addi",
        "ionally"
      ],
      [
        "addi",
        "itonally"
      ],
      [
        "fla",
        "hs"
      ],
      [
        "progr",
        "ma"
      ],
      [
        "vale",
        "u"
      ],
      [
        "brn",
        "g"
      ],
      [
        "mil",
        "iseconds"
      ],
      [
        "sit",
        "ch"
      ],
      [
        "srn",
        "se"
      ],
      [
        "vsl",
        "ue"
      ],
      [
        "input_upll",
        "_up"
      ],
      [
        "byt",
        "se"
      ],
      [
        "buf",
        "efr"
      ],
      [
        "inpu_t",
        "floating"
      ],
      [
        "output_ope",
        "_drain"
      ],
      [
        "impl",
        "rment"
      ],
      [
        "output_open_",
        "rda"
      ],
      [
        "assg",
        "in"
      ],
      [
        "millie",
        "conds"
      ],
      [
        "currn",
        "et"
      ],
      [
        "ap",
        "b1"
      ],
      [
        "csp",
        "ture"
      ],
      [
        "dr",
        "vie"
      ],
      [
        "drt",
        "ect"
      ],
      [
        "fas",
        "t"
      ],
      [
        "fil",
        "p"
      ],
      [
        "mll",
        "iseconds"
      ],
      [
        "nre",
        "ds"
      ],
      [
        "uat",
        "r"
      ],
      [
        "inco",
        "imng"
      ],
      [
        "sepe",
        "d"
      ],
      [
        "outputo_p",
        "en_drain"
      ],
      [
        "baudart",
        "e"
      ],
      [
        "leev",
        "l"
      ],
      [
        "inputp_ull",
        "_up"
      ],
      [
        "output_oe",
        "pn_drain"
      ],
      [
        "millsie",
        "conds"
      ],
      [
        "input_fol",
        "ating"
      ],
      [
        "unic",
        "ation"
      ],
      [
        "sapm",
        "le"
      ],
      [
        "repeste",
        "dly"
      ],
      [
        "sohu",
        "ld"
      ],
      [
        "output_open_rda",
        "in"
      ],
      [
        "2",
        "800"
      ],
      [
        "P",
        "D"
      ],
      [
        "_",
        "own"
      ],
      [
        "_",
        "loating"
      ],
      [
        "_",
        "nd"
      ],
      [
        "a",
        "8"
      ],
      [
        "a",
        "9"
      ],
      [
        "a",
        "m"
      ],
      [
        "a",
        "rriv"
      ],
      [
        "b",
        "f"
      ],
      [
        "b",
        "ud"
      ],
      [
        "b",
        "ff"
      ],
      [
        "b",
        "il"
      ],
      [
        "c",
        "at"
      ],
      [
        "c",
        "ing"
      ],
      [
        "c",
        "15"
      ],
      [
        "c",
        "13"
      ],
      [
        "d",
        "ee"
      ],
      [
        "d",
        "te"
      ],
      [
        "e",
        "a"
      ],
      [
        "f",
        "s"
      ],
      [
        "f",
        "er"
      ],
      [
        "f",
        "ware"
      ],
      [
        "f",
        "ede"
      ],
      [
        "f",
        "_loating"
      ],
      [
        "g",
        "u"
      ],
      [
        "g",
        "sit"
      ],
      [
        "h",
        "od"
      ],
      [
        "k",
        "r"
      ],
      [
        "l",
        "as"
      ],
      [
        "l",
        "al"
      ],
      [
        "l",
        "ce"
      ],
      [
        "l",
        "pe"
      ],
      [
        "l",
        "ilate"
      ],
      [
        "l",
        "foating"
      ],
      [
        "m",
        "unication"
      ],
      [
        "m",
        "lpe"
      ],
      [
        "n",
        "s"
      ],
      [
        "n",
        "ate"
      ],
      [
        "o",
        "i"
      ],
      [
        "o",
        "ud"
      ],
      [
        "o",
        "ic"
      ],
      [
        "o",
        "ting"
      ],
      [
        "o",
        "id"
      ],
      [
        "o",
        "inally"
      ],
      [
        "o",
        "kr"
      ],
      [
        "p",
        "i"
      ],
      [
        "p",
        "riod"
      ],
      [
        "s",
        "ig"
      ],
      [
        "s",
        "with"
      ],
      [
        "s",
        "all"
      ],
      [
        "s",
        "ma"
      ],
      [
        "s",
        "wti"
      ],
      [
        "s",
        "illate"
      ],
      [
        "u",
        "hg"
      ],
      [
        "u",
        "h_pull"
      ],
      [
        "u",
        "fer"
      ],
      [
        "v",
        "te"
      ],
      [
        "w",
        "ro"
      ],
      [
        "w",
        "okr"
      ],
      [
        "x",
        "cution"
      ],
      [
        "in",
        "t"
      ],
      [
        "in",
        "er"
      ],
      [
        "in",
        "upt"
      ],
      [
        "at",
        "l"
      ],
      [
        "it",
        "en"
      ],
      [
        "it",
        "vate"
      ],
      [
        "ll",
        "ate"
      ],
      [
        "as",
        "ign"
      ],
      [
        "as",
        "is"
      ],
      [
        "re",
        "a"
      ],
      [
        "re",
        "sd"
      ],
      [
        "re",
        "gist"
      ],
      [
        "re",
        "da"
      ],
      [
        "re",
        "gsit"
      ],
      [
        "ud",
        "ce"
      ],
      [
        "baud",
        "ra"
      ],
      [
        "baud",
        "rt"
      ],
      [
        "le",
        "el"
      ],
      [
        "or",
        "ugh"
      ],
      [
        "input",
        "pull"
      ],
      [
        "input",
        "f_loating"
      ],
      [
        "al",
        "ter"
      ],
      [
        "en",
        "r"
      ],
      [
        "an",
        "ls"
      ],
      [
        "bl",
        "un"
      ],
      [
        "ad",
        "id"
      ],
      [
        "blink",
        "ing"
      ],
      [
        "sh",
        "oud"
      ],
      [
        "th",
        "ing"
      ],
      [
        "th",
        "ough"
      ],
      [
        "th",
        "orugh"
      ],
      [
        "st",
        "r"
      ],
      [
        "st",
        "ll"
      ],
      [
        "st",
        "rn"
      ],
      [
        "st",
        "lal"
      ],
      [
        "od",
        "ns"
      ],
      [
        "output_",
        "ps"
      ],
      [
        "input_pull",
        "_own"
      ],
      [
        "ce",
        "onds"
      ],
      [
        "pa",
        "rt"
      ],
      [
        "ee",
        "xcution"
      ],
      [
        "cy",
        "ce"
      ],
      [
        "cy",
        "lce"
      ],
      [
        "mill",
        "seconds"
      ],
      [
        "blo",
        "cing"
      ],
      [
        "input_",
        "fla"
      ],
      [
        "input_",
        "foating"
      ],
      [
        "input_",
        "lfoating"
      ],
      [
        "ti",
        "on"
      ],
      [
        "ti",
        "er"
      ],
      [
        "ti",
        "onally"
      ],
      [
        "fl",
        "pi"
      ],
      [
        "gp",
        "oi"
      ],
      [
        "dri",
        "e"
      ],
      [
        "sign",
        "las"
      ],
      [
        "ec",
        "ution"
      ],
      [
        "digit",
        "la"
      ],
      [
        "osc",
        "lilate"
      ],
      [
        "pr",
        "pare"
      ],
      [
        "pr",
        "du"
      ],
      [
        "pr",
        "riod"
      ],
      [
        "b1",
        "1"
      ],
      [
        "b1",
        "3"
      ],
      [
        "ic",
        "ally"
      ],
      [
        "ou",
        "put_open_drain"
      ],
      [
        "runn",
        "ig"
      ],
      [
        "runn",
        "ign"
      ],
      [
        "pre",
        "pa"
      ],
      [
        "pre",
        "pre"
      ],
      [
        "sa",
        "blish"
      ],
      [
        "sa",
        "mlpe"
      ],
      [
        "com",
        "munication"
      ],
      [
        "rx",
        "ecution"
      ],
      [
        "nee",
        "sd"
      ],
      [
        "buff",
        "re"
      ],
      [
        "inter",
        "vsl"
      ],
      [
        "inter",
        "vl"
      ],
      [
        "ist",
        "er"
      ],
      [
        "pro",
        "udce"
      ],
      [
        "det",
        "et"
      ],
      [
        "exec",
        "ut"
      ],
      [
        "exec",
        "tion"
      ],
      [
        "soft",
        "w"
      ],
      [
        "log",
        "c"
      ],
      [
        "coll",
        "et"
      ],
      [
        "ac",
        "itvate"
      ],
      [
        "14",
        "04"
      ],
      [
        "0x",
        "2"
      ],
      [
        "0x",
        "3"
      ],
      [
        "rr",
        "gister"
      ],
      [
        "output_push",
        "pull"
      ],
      [
        "output_push",
        "p_ull"
      ],
      [
        "il",
        "seconds"
      ],
      [
        "input_flo",
        "ait"
      ],
      [
        "apb",
        "2en"
      ],
      [
        "millis",
        "ceonds"
      ],
      [
        "ls",
        "iten"
      ],
      [
        "thr",
        "uo"
      ],
      [
        "inpu",
        "_floating"
      ],
      [
        "sot",
        "fware"
      ],
      [
        "0x400",
        "1"
      ],
      [
        "addition",
        "lly"
      ],
      [
        "ot",
        "put_push_pull"
      ],
      [
        "inut",
        "_pull_up"
      ],
      [
        "bytr",
        "s"
      ],
      [
        "blokc",
        "ing"
      ],
      [
        "chann",
        "l"
      ],
      [
        "millisec",
        "odns"
      ],
      [
        "additionaly",
        "l"
      ],
      [
        "_t",
        "push_pull"
      ],
      [
        "output_p",
        "sh_pull"
      ],
      [
        "output_open",
        "d_"
      ],
      [
        "addit",
        "onally"
      ],
      [
        "addit",
        "inally"
      ],
      [
        "addit",
        "oinally"
      ],
      [
        "blco",
        "king"
      ],
      [
        "progr",
        "sm"
      ],
      [
        "addti",
        "onally"
      ],
      [
        "brn",
        "ig"
      ],
      [
        "mil",
        "ilseconds"
      ],
      [
        "srn",
        "sor"
      ],
      [
        "input_upll",
        "_down"
      ],
      [
        "byt",
        "s"
      ],
      [
        "byet",
        "s"
      ],
      [
        "perid",
        "o"
      ],
      [
        "buf",
        "er"
      ],
      [
        "inpu_t",
        "pull"
      ],
      [
        "output_ope",
        "_nd"
      ],
      [
        "impl",
        "ment"
      ],
      [
        "output_open_",
        "rain"
      ],
      [
        "incom",
        "ign"
      ],
      [
        "incom",
        "ng"
      ],
      [
        "outpu",
        "_tpush_pull"
      ],
      [
        "thro",
        "gu"
      ],
      [
        "thro",
        "uhg"
      ],
      [
        "trun",
        "ed"
      ],
      [
        "digi",
        "al"
      ],
      [
        "digi",
        "atl"
      ],
      [
        "ipnut",
        "_pull_up"
      ],
      [
        "implem",
        "nt"
      ],
      [
        "operat",
        "ino"
      ],
      [
        "millisecn",
        "ds"
      ],
      [
        "millisecn",
        "ods"
      ],
      [
        "08",
        "0"
      ],
      [
        "dg",
        "ital"
      ],
      [
        "lg",
        "oic"
      ],
      [
        "oc",
        "sillate"
      ],
      [
        "otu",
        "put_open_drain"
      ],
      [
        "oupt",
        "ut_push_pull"
      ],
      [
        "sw",
        "tch"
      ],
      [
        "srt",
        "ting"
      ],
      [
        "vali",
        "d_"
      ],
      [
        "outupt",
        "_push_pull"
      ],
      [
        "ope",
        "ation"
      ],
      [
        "input_ull",
        "_down"
      ],
      [
        "input_pll",
        "_down"
      ],
      [
        "tim3",
        "ms"
      ],
      [
        "input_float",
        "nig"
      ],
      [
        "repeatel",
        "dy"
      ],
      [
        "apb1",
        "enr"
      ],
      [
        "arriv",
        "ign"
      ],
      [
        "bf",
        "ufer"
      ],
      [
        "bud",
        "rate"
      ],
      [
        "bff",
        "er"
      ],
      [
        "dte",
        "ct"
      ],
      [
        "fs",
        "st"
      ],
      [
        "hod",
        "l"
      ],
      [
        "sig",
        "anls"
      ],
      [
        "swith",
        "c"
      ],
      [
        "sma",
        "ple"
      ],
      [
        "swti",
        "ch"
      ],
      [
        "wro",
        "k"
      ],
      [
        "iner",
        "val"
      ],
      [
        "asis",
        "gn"
      ],
      [
        "resd",
        "ing"
      ],
      [
        "regist",
        "r"
      ],
      [
        "reda",
        "ing"
      ],
      [
        "regsit",
        "er"
      ],
      [
        "baudra",
        "et"
      ],
      [
        "alter",
        "nate"
      ],
      [
        "blun",
        "king"
      ],
      [
        "adid",
        "tionally"
      ],
      [
        "shoud",
        "l"
      ],
      [
        "strn",
        "ig"
      ],
      [
        "output_ps",
        "uh_pull"
      ],
      [
        "part",
        "i"
      ],
      [
        "input_fla",
        "oting"
      ],
      [
        "prdu",
        "ce"
      ],
      [
        "1404",
        "0"
      ],
      [
        "input_floait",
        "ng"
      ],
      [
        "apb2en",
        "r"
      ],
      [
        "thruo",
        "gh"
      ],
      [
        "output_opend_",
        "rain"
      ],
      [
        "output_ope_nd",
        "rain"
      ],
      [
        "throgu",
        "h"
      ],
      [
        "0",
        "c"
      ],
      [
        "0",
        "400"
      ],
      [
        "1",
        "c"
      ],
      [
        "1",
        "en"
      ],
      [
        "1",
        "400"
      ],
      [
        "2",
        "1000"
      ],
      [
        "3",
        "en"
      ],
      [
        "4",
        "en"
      ],
      [
        "4",
        "080"
      ],
      [
        "8",
        "0"
      ],
      [
        "_",
        "top"
      ],
      [
        "_",
        "ld"
      ],
      [
        "a",
        "f"
      ],
      [
        "a",
        "en"
      ],
      [
        "a",
        "15"
      ],
      [
        "a",
        "pre"
      ],
      [
        "a",
        "rri"
      ],
      [
        "a",
        "vte"
      ],
      [
        "b",
        "3"
      ],
      [
        "b",
        "4"
      ],
      [
        "b",
        "ig"
      ],
      [
        "b",
        "en"
      ],
      [
        "b",
        "15"
      ],
      [
        "c",
        "00"
      ],
      [
        "c",
        "en"
      ],
      [
        "c",
        "ally"
      ],
      [
        "c",
        "ue"
      ],
      [
        "c",
        "pture"
      ],
      [
        "c",
        "nt"
      ],
      [
        "c",
        "14"
      ],
      [
        "d",
        "1"
      ],
      [
        "d",
        "en"
      ],
      [
        "d",
        "rate"
      ],
      [
        "d",
        "ou"
      ],
      [
        "d",
        "rve"
      ],
      [
        "e",
        "s"
      ],
      [
        "e",
        "atedly"
      ],
      [
        "e",
        "sablish"
      ],
      [
        "f",
        "re"
      ],
      [
        "f",
        "al"
      ],
      [
        "g",
        "ip"
      ],
      [
        "g",
        "ae"
      ],
      [
        "h",
        "t"
      ],
      [
        "h",
        "er"
      ],
      [
        "i",
        "w"
      ],
      [
        "i",
        "set"
      ],
      [
        "i",
        "coming"
      ],
      [
        "i",
        "rn"
      ],
      [
        "i",
        "ac"
      ],
      [
        "i",
        "put_pull"
      ],
      [
        "i",
        "ital"
      ],
      [
        "i",
        "king"
      ],
      [
        "l",
        "st"
      ],
      [
        "l",
        "aly"
      ],
      [
        "l",
        "iset"
      ],
      [
        "m",
        "et"
      ],
      [
        "n",
        "on"
      ],
      [
        "n",
        "ing"
      ],
      [
        "n",
        "ds"
      ],
      [
        "n",
        "et"
      ],
      [
        "n",
        "ed"
      ],
      [
        "n",
        "_drain"
      ],
      [
        "n",
        "king"
      ],
      [
        "n",
        "iking"
      ],
      [
        "o",
        "in"
      ],
      [
        "o",
        "en_drain"
      ],
      [
        "p",
        "tr"
      ],
      [
        "p",
        "odu"
      ],
      [
        "p",
        "rity"
      ],
      [
        "q",
        "u"
      ],
      [
        "r",
        "l"
      ],
      [
        "r",
        "in"
      ],
      [
        "r",
        "or"
      ],
      [
        "r",
        "al"
      ],
      [
        "r",
        "ge"
      ],
      [
        "r",
        "rn"
      ],
      [
        "r",
        "gister"
      ],
      [
        "r",
        "ct"
      ],
      [
        "s",
        "ing"
      ],
      [
        "s",
        "ro"
      ],
      [
        "s",
        "conds"
      ],
      [
        "s",
        "ge"
      ],
      [
        "s",
        "ca"
      ],
      [
        "s",
        "iw"
      ],
      [
        "t",
        "al"
      ],
      [
        "t",
        "vate"
      ],
      [
        "t",
        "ct"
      ],
      [
        "u",
        "it"
      ],
      [
        "u",
        "gn"
      ],
      [
        "v",
        "lo"
      ],
      [
        "v",
        "ot"
      ],
      [
        "v",
        "la"
      ],
      [
        "v",
        "tae"
      ],
      [
        "w",
        "m"
      ],
      [
        "w",
        "ta"
      ],
      [
        "ut",
        "or"
      ],
      [
        "00",
        "0"
      ],
      [
        "in",
        "al"
      ],
      [
        "in",
        "tr"
      ],
      [
        "in",
        "oally"
      ],
      [
        "in",
        "vali"
      ],
      [
        "at",
        "ci"
      ],
      [
        "it",
        "y"
      ],
      [
        "on",
        "o"
      ],
      [
        "se",
        "se"
      ],
      [
        "se",
        "ed"
      ],
      [
        "out",
        "ut_push_pull"
      ],
      [
        "output",
        "open_drain"
      ],
      [
        "output",
        "push_pull"
      ],
      [
        "as",
        "sin"
      ],
      [
        "as",
        "sing"
      ],
      [
        "re",
        "ig"
      ],
      [
        "re",
        "ister"
      ],
      [
        "re",
        "cnt"
      ],
      [
        "re",
        "eatedly"
      ],
      [
        "ba",
        "ur"
      ],
      [
        "ba",
        "drate"
      ],
      [
        "TIM",
        "1"
      ],
      [
        "le",
        "r"
      ],
      [
        "le",
        "vl"
      ],
      [
        "input",
        "floating"
      ],
      [
        "pu",
        "re"
      ],
      [
        "al",
        "ing"
      ],
      [
        "al",
        "ow"
      ],
      [
        "al",
        "ol"
      ],
      [
        "ig",
        "tal"
      ],
      [
        "er",
        "ror"
      ],
      [
        "en",
        "cy"
      ],
      [
        "en",
        "aling"
      ],
      [
        "con",
        "s"
      ],
      [
        "bl",
        "nig"
      ],
      [
        "bl",
        "niking"
      ],
      [
        "el",
        "ay"
      ],
      [
        "us",
        "h_pull"
      ],
      [
        "ate",
        "dy"
      ],
      [
        "blink",
        "ig"
      ],
      [
        "sh",
        "old"
      ],
      [
        "sh",
        "ol"
      ],
      [
        "_d",
        "elay"
      ],
      [
        "ev",
        "al"
      ],
      [
        "ev",
        "en"
      ],
      [
        "del",
        "y"
      ],
      [
        "500",
        "0"
      ],
      [
        "lo",
        "da"
      ],
      [
        "st",
        "al"
      ],
      [
        "st",
        "er"
      ],
      [
        "st",
        "rung"
      ],
      [
        "st",
        "irn"
      ],
      [
        "od",
        "d"
      ],
      [
        "od",
        "cue"
      ],
      [
        "ri",
        "yt"
      ],
      [
        "38",
        "00"
      ],
      [
        "ra",
        "e"
      ],
      [
        "output_",
        "oen_drain"
      ],
      [
        "output_",
        "ush_pull"
      ],
      [
        "ve",
        "form"
      ],
      [
        "input_pull",
        "up"
      ],
      [
        "input_pull",
        "d_"
      ],
      [
        "ce",
        "t"
      ],
      [
        "ce",
        "ck"
      ],
      [
        "sen",
        "os"
      ],
      [
        "sen",
        "es"
      ],
      [
        "sen",
        "sro"
      ],
      [
        "wh",
        "en"
      ],
      [
        "wa",
        "e"
      ],
      [
        "wa",
        "ht"
      ],
      [
        "wa",
        "veform"
      ],
      [
        "pa",
        "ity"
      ],
      [
        "pa",
        "riyt"
      ],
      [
        "tr",
        "ned"
      ],
      [
        "millise",
        "oc"
      ],
      [
        "millise",
        "onds"
      ],
      [
        "millise",
        "cons"
      ],
      [
        "block",
        "ign"
      ],
      [
        "et",
        "sablish"
      ],
      [
        "ti",
        "al"
      ],
      [
        "per",
        "oid"
      ],
      [
        "cre",
        "nt"
      ],
      [
        "un",
        "ate"
      ],
      [
        "dri",
        "ev"
      ],
      [
        "peri",
        "oid"
      ],
      [
        "tim",
        "2en"
      ],
      [
        "tim",
        "4en"
      ],
      [
        "ena",
        "bil"
      ],
      [
        "ena",
        "blnig"
      ],
      [
        "period",
        "ci"
      ],
      [
        "period",
        "iac"
      ],
      [
        "timer",
        "_p"
      ],
      [
        "timer",
        "_delay"
      ],
      [
        "dig",
        "tial"
      ],
      [
        "os",
        "ic"
      ],
      [
        "os",
        "illate"
      ],
      [
        "digit",
        "l"
      ],
      [
        "osc",
        "llate"
      ],
      [
        "oscill",
        "tae"
      ],
      [
        "pr",
        "dou"
      ],
      [
        "pr",
        "odcue"
      ],
      [
        "sp",
        "ede"
      ],
      [
        "b1",
        "4"
      ],
      [
        "ic",
        "th"
      ],
      [
        "produ",
        "e"
      ],
      [
        "ip",
        "her"
      ],
      [
        "ou",
        "put_push_pull"
      ],
      [
        "a1",
        "3"
      ],
      [
        "a1",
        "4"
      ],
      [
        "a1",
        "7"
      ],
      [
        "art",
        "ion"
      ],
      [
        "runn",
        "ng"
      ],
      [
        "uart",
        "1"
      ],
      [
        "uart",
        "2"
      ],
      [
        "uart",
        "3"
      ],
      [
        "pre",
        "apre"
      ],
      [
        "pre",
        "sca"
      ],
      [
        "sa",
        "e"
      ],
      [
        "sa",
        "ble"
      ],
      [
        "sa",
        "ple"
      ],
      [
        "com",
        "ple"
      ],
      [
        "com",
        "unication"
      ],
      [
        "pe",
        "recnt"
      ],
      [
        "pe",
        "crent"
      ],
      [
        "pe",
        "ipher"
      ],
      [
        "nee",
        "s"
      ],
      [
        "buff",
        "r"
      ],
      [
        "inter",
        "vla"
      ],
      [
        "rn",
        "ning"
      ],
      [
        "periodic",
        "lly"
      ],
      [
        "repe",
        "ae"
      ],
      [
        "repe",
        "aet"
      ],
      [
        "repe",
        "atedy"
      ],
      [
        "pt",
        "ue"
      ],
      [
        "be",
        "fo"
      ],
      [
        "det",
        "cet"
      ],
      [
        "buad",
        "rate"
      ],
      [
        "ex",
        "cution"
      ],
      [
        "so",
        "mr"
      ],
      [
        "so",
        "met"
      ],
      [
        "mes",
        "sg"
      ],
      [
        "mes",
        "sae"
      ],
      [
        "exec",
        "uit"
      ],
      [
        "wor",
        "d"
      ],
      [
        "bli",
        "h"
      ],
      [
        "sof",
        "wta"
      ],
      [
        "soft",
        "wae"
      ],
      [
        "ca",
        "ptr"
      ],
      [
        "ca",
        "ptue"
      ],
      [
        "log",
        "ci"
      ],
      [
        "esta",
        "blih"
      ],
      [
        "prog",
        "am"
      ],
      [
        "rv",
        "en"
      ],
      [
        "oper",
        "ait"
      ],
      [
        "list",
        "n"
      ],
      [
        "coll",
        "rct"
      ],
      [
        "sin",
        "als"
      ],
      [
        "ac",
        "tvate"
      ],
      [
        "evr",
        "al"
      ],
      [
        "0x",
        "00"
      ],
      [
        "0x",
        "38"
      ],
      [
        "0x",
        "14"
      ],
      [
        "0x",
        "10"
      ],
      [
        "0x",
        "28"
      ],
      [
        "0x",
        "20"
      ],
      [
        "0x",
        "18"
      ],
      [
        "0x",
        "04"
      ],
      [
        "0x",
        "08"
      ],
      [
        "0x",
        "0c"
      ],
      [
        "0x",
        "1c"
      ],
      [
        "cur",
        "rrn"
      ],
      [
        "mon",
        "utor"
      ],
      [
        "output_push",
        "_p"
      ],
      [
        "di",
        "igtal"
      ],
      [
        "di",
        "sable"
      ],
      [
        "di",
        "rven"
      ],
      [
        "curre",
        "t"
      ],
      [
        "ne",
        "ds"
      ],
      [
        "10",
        "20"
      ],
      [
        "28",
        "080"
      ],
      [
        "28",
        "80"
      ],
      [
        "20",
        "5000"
      ],
      [
        "apb",
        "2"
      ],
      [
        "periph",
        "ea"
      ],
      [
        "periph",
        "ral"
      ],
      [
        "thr",
        "ugh"
      ],
      [
        "va",
        "ue"
      ],
      [
        "inpu",
        "_pull_down"
      ],
      [
        "sot",
        "ware"
      ],
      [
        "0x400",
        "04"
      ],
      [
        "0x400",
        "0400"
      ],
      [
        "0x400",
        "21000"
      ],
      [
        "addition",
        "laly"
      ],
      [
        "br",
        "ign"
      ],
      [
        "ot",
        "put_open_drain"
      ],
      [
        "output_op",
        "n_drain"
      ],
      [
        "inptu",
        "_pull_down"
      ],
      [
        "input_pull_d",
        "wn"
      ],
      [
        "la",
        "ge"
      ],
      [
        "repeat",
        "dely"
      ],
      [
        "addit",
        "inoally"
      ],
      [
        "bolck",
        "ing"
      ],
      [
        "sg",
        "inal"
      ],
      [
        "output_pu",
        "hs"
      ],
      [
        "output_pu",
        "h_pull"
      ],
      [
        "input_pul",
        "_down"
      ],
      [
        "input_pul",
        "_ld"
      ],
      [
        "fla",
        "h"
      ],
      [
        "pei",
        "od"
      ],
      [
        "progr",
        "m"
      ],
      [
        "est",
        "blish"
      ],
      [
        "id",
        "ng"
      ],
      [
        "shu",
        "ld"
      ],
      [
        "output_open_da",
        "rin"
      ],
      [
        "perid",
        "ically"
      ],
      [
        "some",
        "thing"
      ],
      [
        "iop",
        "aen"
      ],
      [
        "iop",
        "ben"
      ],
      [
        "iop",
        "cen"
      ],
      [
        "iop",
        "den"
      ],
      [
        "ture",
        "nd"
      ],
      [
        "vl",
        "tage"
      ],
      [
        "outpu",
        "_open_drain"
      ],
      [
        "outpu",
        "_top"
      ],
      [
        "assg",
        "n"
      ],
      [
        "millie",
        "sconds"
      ],
      [
        "perod",
        "ically"
      ],
      [
        "gpio_",
        "output"
      ],
      [
        "gpio_",
        "input"
      ],
      [
        "gpio_",
        "toggle"
      ],
      [
        "gpio_",
        "read"
      ],
      [
        "ipnut",
        "_floating"
      ],
      [
        "ipnut",
        "_pull_down"
      ],
      [
        "implem",
        "et"
      ],
      [
        "implem",
        "net"
      ],
      [
        "operat",
        "in"
      ],
      [
        "operat",
        "oin"
      ],
      [
        "output_open_dran",
        "i"
      ],
      [
        "currn",
        "t"
      ],
      [
        "bock",
        "ing"
      ],
      [
        "btye",
        "s"
      ],
      [
        "dg",
        "iital"
      ],
      [
        "lg",
        "ic"
      ],
      [
        "otu",
        "put_push_pull"
      ],
      [
        "oupt",
        "ut_open_drain"
      ],
      [
        "sw",
        "icth"
      ],
      [
        "srt",
        "ing"
      ],
      [
        "uo",
        "us"
      ],
      [
        "ino",
        "cming"
      ],
      [
        "outupt",
        "_open_drain"
      ],
      [
        "usart",
        "2en"
      ],
      [
        "usart",
        "1en"
      ],
      [
        "usart",
        "3en"
      ],
      [
        "ope",
        "artion"
      ],
      [
        "input_ull",
        "_up"
      ],
      [
        "input_pll",
        "_up"
      ],
      [
        "tim3",
        "en"
      ],
      [
        "signas",
        "l"
      ],
      [
        "uart_",
        "transmit"
      ],
      [
        "uart_",
        "receive"
      ],
      [
        "uart_",
        "init"
      ],
      [
        "rcc_",
        "enable"
      ],
      [
        "rcc_",
        "apb1enr"
      ],
      [
        "rcc_",
        "apb2enr"
      ],
      [
        "chek",
        "c"
      ],
      [
        "acti",
        "vte"
      ],
      [
        "acti",
        "avte"
      ],
      [
        "acti",
        "vtae"
      ],
      [
        "input_float",
        "ign"
      ],
      [
        "volt",
        "ge"
      ],
      [
        "volt",
        "gae"
      ],
      [
        "volt",
        "sge"
      ],
      [
        "0x40000",
        "400"
      ],
      [
        "0x40000",
        "800"
      ],
      [
        "0x40000",
        "000"
      ],
      [
        "0x40010",
        "400"
      ],
      [
        "0x40010",
        "800"
      ],
      [
        "0x40010",
        "c00"
      ],
      [
        "input_pull_don",
        "w"
      ],
      [
        "repeatel",
        "y"
      ],
      [
        "am",
        "big"
      ],
      [
        "bil",
        "nking"
      ],
      [
        "cat",
        "ure"
      ],
      [
        "cat",
        "pure"
      ],
      [
        "dee",
        "ct"
      ],
      [
        "dee",
        "tct"
      ],
      [
        "ea",
        "ch"
      ],
      [
        "int",
        "eval"
      ],
      [
        "int",
        "evral"
      ],
      [
        "inupt",
        "_floating"
      ],
      [
        "inupt",
        "_pull_down"
      ],
      [
        "rea",
        "ing"
      ],
      [
        "rea",
        "idng"
      ],
      [
        "baudrt",
        "e"
      ],
      [
        "baudrt",
        "ae"
      ],
      [
        "inputpull",
        "_up"
      ],
      [
        "inputpull",
        "_down"
      ],
      [
        "str",
        "ig"
      ],
      [
        "str",
        "ign"
      ],
      [
        "prepa",
        "e"
      ],
      [
        "prepa",
        "er"
      ],
      [
        "detet",
        "c"
      ],
      [
        "execut",
        "in"
      ],
      [
        "execut",
        "on"
      ],
      [
        "softw",
        "re"
      ],
      [
        "softw",
        "rae"
      ],
      [
        "0x2",
        "4"
      ],
      [
        "0x2",
        "c"
      ],
      [
        "0x3",
        "4"
      ],
      [
        "0x3",
        "c"
      ],
      [
        "0x4001",
        "1000"
      ],
      [
        "0x4001",
        "3800"
      ],
      [
        "inpu_tpull",
        "_up"
      ],
      [
        "inpu_tpull",
        "_down"
      ],
      [
        "valid_",
        "parti"
      ],
      [
        "valid_",
        "comple"
      ],
      [
        "alternate",
        "_push_pull"
      ],
      [
        "parti",
        "y"
      ],
      [
        "af",
        "ter"
      ],
      [
        "arri",
        "ing"
      ],
      [
        "fre",
        "qu"
      ],
      [
        "fal",
        "sh"
      ],
      [
        "gip",
        "o"
      ],
      [
        "iput_pull",
        "_up"
      ],
      [
        "lst",
        "en"
      ],
      [
        "liset",
        "n"
      ],
      [
        "non",
        "e"
      ],
      [
        "podu",
        "ce"
      ],
      [
        "rge",
        "ister"
      ],
      [
        "siw",
        "tch"
      ],
      [
        "ugn",
        "ate"
      ],
      [
        "vlo",
        "tage"
      ],
      [
        "vot",
        "lage"
      ],
      [
        "intr",
        "val"
      ],
      [
        "invali",
        "d"
      ],
      [
        "atci",
        "vate"
      ],
      [
        "reig",
        "ster"
      ],
      [
        "baur",
        "ate"
      ],
      [
        "alol",
        "w"
      ],
      [
        "shol",
        "ud"
      ],
      [
        "stirn",
        "g"
      ],
      [
        "input_pulld_",
        "own"
      ],
      [
        "senos",
        "r"
      ],
      [
        "milliseoc",
        "nds"
      ],
      [
        "perioid",
        "cally"
      ],
      [
        "enabil",
        "ng"
      ],
      [
        "periodci",
        "ally"
      ],
      [
        "periodiac",
        "lly"
      ],
      [
        "timer_p",
        "wm"
      ],
      [
        "osic",
        "llate"
      ],
      [
        "prdou",
        "ce"
      ],
      [
        "presca",
        "ler"
      ],
      [
        "peipher",
        "al"
      ],
      [
        "repeae",
        "dly"
      ],
      [
        "repeaet",
        "dly"
      ],
      [
        "repeatedy",
        "l"
      ],
      [
        "befo",
        "re"
      ],
      [
        "somr",
        "thing"
      ],
      [
        "somet",
        "ing"
      ],
      [
        "messg",
        "ae"
      ],
      [
        "execuit",
        "on"
      ],
      [
        "sofwta",
        "re"
      ],
      [
        "captr",
        "ue"
      ],
      [
        "operait",
        "on"
      ],
      [
        "currrn",
        "t"
      ],
      [
        "output_push_p",
        "ll"
      ],
      [
        "periphea",
        "rl"
      ],
      [
        "0x40004",
        "400"
      ],
      [
        "0x4000400",
        "0"
      ],
      [
        "output_puhs",
        "_pull"
      ],
      [
        "input_pul_ld",
        "own"
      ],
      [
        "outpu_top",
        "en_drain"
      ],
      [
        "ambig",
        "uous"
      ],
      [
        "valid_parti",
        "al"
      ],
      [
        "valid_comple",
        "te"
      ],
      [
        "frequ",
        "ency"
      ]
    ]
  }
}